[PAD]
[START]
[END]
!
"
#
$
%
&
(
)
*
+
,
-
.
/
0
1
2
3
4
5
6
7
8
9
:
;
=
?
@
\
^
_
a
b
c
d
e
f
g
h
i
j
k
l
m
n
o
p
q
r
s
t
u
v
w
x
y
z
£
¿
æ
ø
τ
ย
ร
อ
–
—
’
•
∇
♪
♫
the
and
to
apos
of
that
in
it
you
we
is
quot
this
so
they
was
for
##s
are
have
what
but
on
with
can
there
about
be
as
at
all
not
do
one
my
re
people
like
from
if
now
our
just
these
an
he
or
when
very
because
out
me
by
going
how
know
up
them
more
had
see
think
were
which
here
their
who
really
would
your
get
then
ve
us
time
##ing
world
some
has
actually
don
into
where
will
way
##ed
years
things
laughter
other
well
could
go
no
been
want
make
right
those
first
something
she
two
much
look
than
##d
said
also
new
little
thing
got
back
over
most
even
his
life
take
only
work
say
##ly
many
need
kind
did
lot
around
applause
different
why
good
every
let
down
through
her
ll
same
come
being
year
three
doing
use
day
put
called
today
percent
thank
any
made
##er
##y
after
human
great
tell
find
fact
its
##e
change
another
own
talk
didn
idea
big
last
started
before
should
##a
000
never
better
together
important
went
give
might
problem
thought
part
able
system
off
does
still
again
course
story
each
##r
next
##t
start
ago
few
long
technology
him
show
came
brain
place
bit
used
mean
##n
between
old
example
water
##es
too
data
question
maybe
end
looking
##al
done
10
found
women
doesn
point
children
understand
love
real
wanted
live
sort
four
may
ever
away
always
million
school
whole
call
trying
everything
working
person
believe
country
try
using
information
help
second
five
space
thinking
power
##o
man
times
feel
high
means
number
took
small
design
create
future
kids
making
enough
become
money
quite
building
music
city
left
##ers
sense
home
without
getting
earth
best
food
comes
body
energy
happened
##l
social
talking
probably
light
less
interesting
pretty
science
coming
stuff
half
am
video
imagine
across
ask
such
lives
##i
20
anything
told
countries
simple
dollars
play
africa
having
moment
health
happen
living
hard
saw
hand
build
ways
computer
project
cells
family
almost
okay
yet
side
makes
room
case
experience
while
##ic
care
young
days
picture
later
once
far
seen
asked
process
remember
states
move
inside
nothing
goes
open
whether
billion
happens
learn
planet
basically
six
reason
says
single
both
else
global
car
##able
problems
set
often
possible
bad
child
community
mind
already
within
history
##m
public
ideas
##on
someone
war
looked
sure
keep
men
self
everybody
hope
amazing
answer
business
looks
face
saying
matter
myself
##ation
months
100
instead
isn
since
##ment
age
oh
sometimes
yes
united
bring
top
form
government
##ness
built
nature
cancer
##le
read
piece
research
true
beautiful
guy
until
wrong
group
words
book
heard
turn
order
30
control
under
places
wasn
##k
93
line
species
##ity
91
exactly
state
internet
though
society
woman
yeah
completely
works
stop
##h
art
learned
head
large
taking
became
couple
heart
happening
50
decided
job
##us
disease
against
level
everyone
education
itself
mother
must
run
company
friends
study
night
rather
stories
share
hear
black
kinds
##an
knew
middle
model
language
questions
news
##in
universe
name
animals
huge
##rs
turns
gets
sound
america
somebody
themselves
century
created
word
house
india
god
##ion
past
couldn
finally
ones
along
particular
perhaps
ourselves
others
front
ok
hours
lots
cell
third
air
early
worked
based
least
american
environment
students
##c
outside
cities
##ry
thousands
learning
systems
machine
figure
##ting
per
natural
taken
china
gave
seven
ted
##ive
won
free
takes
during
difficult
changed
entire
happy
companies
minutes
15
##p
difference
guys
ocean
area
beginning
behind
death
scale
seeing
easy
close
moving
audience
culture
york
market
size
cost
turned
given
leave
population
economic
wonderful
full
image
terms
##g
cannot
began
##ling
##ia
view
needs
##ized
eyes
humans
reality
##or
team
parts
parents
land
game
known
media
political
longer
simply
needed
##ies
oil
whatever
hands
phone
grow
amount
local
common
white
eight
lost
powerful
yourself
father
growth
week
certain
realized
green
step
spend
born
challenge
deal
felt
interested
ability
red
center
40
gone
tried
surface
test
national
walk
##b
economy
girl
changes
opportunity
##ist
either
field
##ate
low
value
blue
scientists
##th
voice
buy
program
quickly
wouldn
sitting
incredible
fish
pay
patients
##ter
feet
watch
growing
dna
fear
behavior
ground
alone
technologies
weeks
developed
images
physical
structure
morning
spent
##ian
##less
friend
brought
climate
die
hundreds
risk
##u
areas
south
street
understanding
##ar
forward
literally
starting
deep
##ism
material
poor
##ts
complex
sea
rest
average
numbers
shows
access
short
##um
met
seems
fly
animal
force
patient
books
bottom
movement
stage
##en
giving
individual
law
millions
absolutely
telling
feeling
recently
##ine
anyone
changing
ice
nice
speak
tools
fast
knowledge
miles
cars
kid
realize
attention
##est
##ize
blood
lab
map
result
key
##ted
write
network
cut
film
##man
paper
produce
sun
##0
act
##ce
clear
##ble
ca
dark
eat
personal
12
computers
discovered
girls
support
europe
innovation
##ge
north
##x
major
type
wall
industry
development
##te
hold
relationship
digital
issue
lived
special
developing
solution
##ch
rate
tiny
baby
gives
##tion
begin
shape
allow
save
creating
medical
security
choice
fun
meet
##ty
cool
effect
theory
cause
generation
running
stand
color
designed
normal
seem
solve
##ent
asking
guess
please
talked
truth
putting
similar
wrote
especially
showed
soon
dead
sounds
##f
becomes
groups
resources
several
box
trust
issues
nobody
term
available
modern
playing
hour
beyond
chance
experiment
likely
obviously
source
device
eye
impact
action
##ally
drugs
anybody
hundred
##ary
died
haven
incredibly
reasons
rules
class
towards
evolution
certainly
200
movie
nine
revolution
democracy
explain
worth
stay
solar
university
drug
potential
present
code
online
pictures
violence
bigger
quality
led
product
ready
web
approach
focus
showing
message
basic
drive
involved
perfect
aren
mars
knows
non
scientific
60
month
particularly
english
evidence
medicine
##ck
##nt
##st
google
compassion
##ful
speed
##ure
buildings
##age
anyway
boy
##is
indeed
measure
11
carbon
lead
strong
25
listen
##ated
architecture
college
walking
zero
add
develop
leaders
##ne
everywhere
general
rights
examples
nuclear
skin
starts
trees
##ant
african
reach
send
wants
among
##land
pick
robot
camera
exciting
plants
west
hospital
mass
teach
communities
eventually
situation
wait
##w
hit
international
onto
road
suddenly
largest
sit
break
totally
writing
role
crazy
fire
##de
biggest
continue
safe
individuals
perspective
##z
creative
period
results
##ists
##king
##ping
grew
higher
schools
faster
journey
machines
notice
##ous
object
objects
poverty
extraordinary
models
moved
projects
son
organization
plan
vision
connected
office
further
plant
##et
bacteria
follow
screen
usually
village
##les
dream
lose
response
500
intelligence
materials
pattern
smart
mine
success
essentially
service
software
thousand
visual
wife
east
minute
wind
chinese
tree
choose
named
above
fundamental
jobs
killed
table
hiv
pieces
door
sex
shown
cold
favorite
however
crisis
games
meant
older
memory
site
forest
spread
tool
##ie
fall
including
progress
student
traditional
clearly
finding
somewhere
worse
genes
somehow
##8
biology
fight
context
conversation
families
forms
supposed
watching
larger
central
interest
sent
sorts
page
record
song
##ating
##ging
##tic
conditions
impossible
thanks
##ities
doctor
extremely
taught
cases
lines
patterns
##ma
80
activity
bunch
complicated
healthy
standing
stars
successful
##el
##re
consider
electricity
allowed
critical
freedom
increase
neurons
americans
decision
lower
policy
private
serious
truly
##ious
anymore
bodies
except
excited
income
positive
wish
alive
specific
treatment
##ors
##it
##ns
fine
loved
slow
ended
peace
series
upon
products
robots
late
list
pain
##se
recognize
tells
written
kept
protect
teacher
teachers
##led
exist
mom
solutions
therefore
##1
##as
brains
training
allows
decades
foot
happiness
throughout
clean
floor
goal
expect
governments
smaller
##ial
actual
range
##ra
18
although
fantastic
region
square
##ance
engineering
gas
near
points
waste
##ve
financial
greatest
touch
wonder
##ile
aid
driving
hot
main
provide
rich
studies
beings
challenges
costs
diseases
humanity
waiting
anywhere
beauty
genetic
travel
mental
moral
police
reading
##6
##izing
famous
becoming
effective
institutions
rise
values
##id
price
bank
dance
daughter
president
shot
expensive
kill
train
current
immediately
military
politics
##ization
hey
park
town
##line
feed
following
services
unfortunately
dog
speaking
star
unique
concept
final
performance
capital
decisions
himself
production
subject
tend
##red
citizens
doctors
skills
environmental
greater
levels
none
seconds
urban
walked
##9
legs
meaning
river
store
##2
##3
##4
chris
magic
dangerous
enormous
race
search
strange
various
##il
earlier
position
colleagues
decade
forth
bed
flying
london
summer
weren
connect
dad
religion
dollar
invented
text
atmosphere
museum
party
treat
content
moon
tv
direction
gene
societies
uses
ahead
dr
mobile
whose
##ged
familiar
flow
hole
massive
minds
trade
western
300
choices
conflict
john
pull
##ments
##ning
##ny
attack
function
mountain
organizations
physics
programs
remarkable
streets
version
weight
apart
character
draw
genome
mostly
shared
##ding
##ring
helped
plastic
##7
effects
infrastructure
relationships
types
pressure
sell
willing
connection
recent
16
ancient
terrible
##v
devices
dying
forget
rule
stem
##ible
markets
raise
seemed
sky
useful
virus
carry
designers
directly
listening
##5
90
artist
meeting
slide
track
understood
board
civil
inspired
practice
secret
california
push
##ke
##na
70
communicate
complete
cultural
radio
fit
industrial
path
planets
sharing
temperature
arm
decide
event
teaching
##os
##ps
##sh
##tive
aware
career
closer
communication
glass
photograph
sat
worst
##ties
##ual
afghanistan
press
produced
sustainable
worry
24
bill
capacity
experiences
experiments
math
ran
workers
bridge
explore
forces
highly
paid
address
nation
sign
##hip
##ped
responsibility
sick
stopped
14
causes
conference
degrees
emotional
laws
obvious
##tor
birth
despite
female
instance
sorry
straight
##bs
below
fuel
king
lights
original
survive
win
##ler
apply
differences
giant
networks
scientist
##nce
##ving
creativity
knowing
molecules
quick
standard
stick
basis
biological
fix
task
##ls
differently
eating
feels
foundation
hearing
improve
played
post
website
##way
gotten
nearly
sleep
##ability
blind
chemical
consciousness
david
discover
male
slightly
ultimately
afraid
extra
heat
imagination
island
legal
noticed
surgery
evolved
missing
shift
tissue
trouble
drop
notion
purpose
significant
twice
bought
brand
spending
corner
moments
answers
published
related
rock
virtual
##ish
##ll
bone
bringing
easily
justice
matters
pass
possibly
##ur
landscape
speech
##me
##ms
artists
edge
facebook
importantly
brings
definition
depression
forever
mission
reduce
wealth
window
fully
hair
japan
popular
saving
total
active
diversity
focused
oxygen
structures
trial
turning
##nd
##ut
birds
brother
double
held
loss
nations
supply
television
achieve
cover
join
traffic
boys
efficient
farmers
leadership
malaria
offer
religious
##ings
collective
iraq
noise
passion
stuck
##ium
bees
describe
helping
tremendous
##pe
aids
creates
etc
meters
organisms
san
##ical
400
billions
indian
leading
members
mr
prison
##ins
##ue
babies
elements
identity
photo
report
return
complexity
entirely
majority
walls
flight
discovery
easier
engage
funny
passed
respect
studying
wild
##la
##ned
afford
base
block
degree
painting
##der
broken
check
responsible
##up
campaign
childhood
engineers
events
necessary
otherwise
possibility
super
13
circle
core
lucky
neighborhood
opportunities
opposite
yellow
asia
ball
respond
soil
suffering
##am
##ified
##istic
colors
failure
figured
opened
##ations
##dy
cloud
distance
vast
17
british
competition
effort
european
french
investment
leads
letter
##ence
background
benefits
coffee
holding
##cy
##per
150
compared
cross
fairly
insects
mouse
studied
whom
wide
##sive
agriculture
brazil
calls
emotions
mathematics
shouldn
##ee
agree
al
begins
damage
extreme
invisible
kilometers
movies
necessarily
sand
sold
artificial
benefit
fighting
foreign
labor
pounds
spaces
trained
##ds
##rate
caught
everyday
faces
failed
increasingly
interact
lesson
researchers
sister
surprise
target
##ions
demand
invest
prize
raised
separate
throw
transform
visit
##med
##zing
believed
civilization
compare
desire
due
hopefully
phenomenon
seriously
washington
coast
currently
cycle
farm
fields
particles
phones
slowly
tough
typical
##ss
caused
deeply
followed
la
lack
names
signals
twitter
##at
##ro
closed
co2
contact
dimensional
husband
motion
oceans
planning
signal
talks
##ians
##ters
##uring
apple
cheap
count
enjoy
folks
hidden
professor
balance
creatures
debate
desert
finished
germany
jump
represent
unless
argue
concerned
deliver
electric
harder
leaving
match
smell
surprising
account
adults
card
era
gold
hasn
limited
mentioned
multiple
photos
spirit
steps
tumor
affect
ants
consequences
constantly
creation
factory
fascinating
hate
threat
##ically
##ular
bear
catch
crime
de
dreams
fashion
magazine
net
normally
principle
strategy
##ks
##ner
3d
leader
moves
negative
profound
scene
sequence
theater
breast
clinical
coal
fourth
gdp
helps
organized
predict
tomorrow
tons
vote
##ol
##que
##ries
##tes
##ze
bits
driven
finger
galaxies
gay
identify
interaction
mothers
valley
wearing
##ide
advanced
condition
detail
experts
filled
grown
invited
meat
microbes
quote
rain
sudden
##cing
##men
##rt
cat
collect
department
hell
iran
calling
commercial
graph
influence
lunch
managed
picked
ray
station
trip
weather
wisdom
army
bird
boat
characters
democratic
email
engineer
essential
galaxy
lady
received
rural
spot
ten
##ton
advantage
brilliant
capable
direct
equivalent
generations
leaves
mexico
note
pages
proud
random
surprised
survival
whenever
##ets
20th
according
airplane
equal
independent
management
mile
organic
platform
safety
ship
treated
trillion
wear
weird
worried
##ire
considered
holes
principles
property
##ite
##oo
avoid
chain
covered
dry
effectively
einstein
ends
keeping
muscle
operating
prevent
protein
struggle
testing
wow
described
grand
institute
rates
sector
soldiers
statistics
waves
##ber
accept
businesses
dealing
experienced
fair
flu
heads
lies
mouth
toward
universal
vehicle
yesterday
##des
##ey
##om
##ot
##ves
article
charge
deeper
designer
designing
exists
faith
hadn
kenya
molecule
rare
richard
technical
##ley
##ulate
21st
ah
arts
belief
construction
fell
increasing
tail
versus
watched
weapons
##ri
##tors
arms
bread
corruption
economics
fund
homes
marriage
married
method
perfectly
stood
stress
##sing
##to
##va
continent
goals
launched
lie
manage
maps
opening
ordinary
saved
sites
transformation
variety
##da
adult
argument
cameras
comfortable
daily
drawing
grandmother
gravity
healthcare
organs
paying
producing
requires
sending
shapes
sum
##ology
canada
coral
curious
dimensions
dinner
emerging
existence
facing
gender
intellectual
losing
nervous
plane
processes
risks
tens
##ded
##ore
court
date
drink
flat
honest
remote
suggest
thinks
thoughts
underneath
voices
##ay
##go
aging
alternative
associated
awful
camp
employees
evolutionary
fellow
george
lifetime
regular
sentence
##ably
##mer
##pt
35
addition
exercise
fat
killing
languages
metal
mit
professional
rid
roughly
shoes
techniques
worldwide
##ants
##ibility
appear
beat
church
conversations
cutting
highest
israel
japanese
ladies
letters
specifically
users
##ad
##ard
##ved
electrical
garden
importance
release
singing
spoke
switch
transportation
warming
wars
battle
carefully
heavy
layer
mark
mortality
mountains
narrative
northern
promise
radiation
round
steel
unit
##ification
##ming
##sion
broke
congress
connections
details
feedback
francisco
link
reaction
roll
vaccine
videos
wave
##bly
##ft
##logy
battery
bright
hall
medium
processing
protection
puts
relatively
resource
spectrum
##light
britain
cognitive
dots
emissions
enter
grade
pre
sad
soul
spring
sub
wondering
##ah
arrived
australia
da
epidemic
exact
exchange
fail
forced
forests
gap
houses
intelligent
leg
library
member
movements
paint
possibilities
prove
seat
sources
tech
##ct
##ute
clock
consumption
cure
empty
gift
inner
metaphor
scared
terrorism
transition
##aging
blocks
budget
bus
chemistry
credit
expression
generate
joy
southern
swimming
technological
wake
##ncy
##ral
##ron
2008
99
accident
affected
applied
carrying
crowd
define
distribution
engine
equipment
feelings
motor
nigeria
ride
strength
##ka
##ked
click
definitely
keeps
lying
organism
politicians
sides
trials
valuable
##ics
75
analysis
beach
collection
combination
dynamic
factors
grid
interface
introduce
liquid
location
molecular
poem
previous
radical
reached
trick
user
2000
absolute
charles
chemicals
increased
invention
kitchen
mid
regions
released
satellite
silence
swim
telescope
whereas
##bo
##ify
##my
##ulating
45
behaviors
bomb
confidence
copy
depends
diet
factor
fill
flies
fold
formed
honor
monkey
pole
primary
properties
recorded
represents
setting
sugar
teeth
##son
activities
anti
bubble
buying
capture
crash
election
environments
fewer
graduate
messages
neighbors
signs
victims
winter
##ip
##ky
##tions
awareness
awesome
components
conscious
correct
england
expected
exploration
fundamentally
nasa
silk
stone
suppose
tonight
youtube
##ier
##ill
##low
##time
anderson
bang
brown
computing
detect
falling
fresh
generally
goods
harvard
horse
manufacturing
muslim
newspaper
outcome
relative
required
resistance
restaurant
roof
sing
studio
stupid
volume
##ign
##nal
##vation
600
cards
challenging
clip
convinced
dogs
explanation
institution
rapidly
remind
sensitive
serve
visible
architects
autism
centers
controlled
darwin
driver
facts
gun
illness
laboratory
mathematical
mechanism
naturally
occur
participate
pop
potentially
replace
roads
sample
songs
sophisticated
survey
violent
warm
##ca
##ened
##late
##un
##ward
added
ancestors
emotion
include
literature
minister
occurred
operate
print
quarter
require
reward
selling
snow
status
tradition
unlike
##ator
##ir
##ture
##ug
##val
actions
bush
concrete
destruction
express
fossil
generated
interests
memories
paul
plus
vehicles
##ars
##ld
chair
director
disaster
frankly
gentlemen
launch
lessons
novel
organ
pacific
partner
partners
percentage
pollution
prime
quantum
skill
typically
unknown
worlds
##ach
##board
##rating
classroom
cortex
hydrogen
infected
innovative
instrument
miss
profit
quiet
ultimate
upper
##io
##lin
##rd
convince
cultures
deaths
engaged
existing
frame
gain
globe
gps
james
lay
master
mystery
notes
perception
pulled
row
sees
sexual
viruses
##cent
##ha
##ise
##ney
##ons
bottle
brothers
centuries
chip
constant
discussion
evil
hospitals
introduced
joined
los
perform
photographs
raw
september
traveling
vulnerable
##ger
##ition
acting
causing
chicken
conservation
expand
funding
options
pair
pleasure
practical
printing
remove
runs
shaped
symptoms
zone
##ain
##ans
##ched
algorithms
cave
doubt
dropped
efficiency
entrepreneurs
films
france
hoping
ii
opinion
option
poetry
proteins
remains
style
tape
theme
union
##out
##sm
2010
attacks
bag
clinic
collaboration
consumer
curve
dancing
economies
encourage
finish
hi
hotel
mention
neither
parking
personally
piano
russia
situations
##gs
##ice
##ick
afternoon
burning
claim
eastern
embrace
implications
instruments
largely
liked
patent
prepared
productive
protected
relevant
shop
stronger
sustainability
tests
##ery
##fy
##ow
##ten
##ud
appreciate
cup
determine
display
electronic
false
hurt
immune
mechanical
operation
pregnant
repair
rooms
suicide
windows
##ates
19th
acts
amazon
aspect
attempt
authority
collected
fiction
hide
input
january
march
musical
nor
odd
tested
wood
22
amp
architect
breath
collapse
criminal
drives
ecosystem
empathy
finance
former
iphone
judge
marketing
michael
nowhere
peak
phase
pollen
remain
vaccines
##ga
##ination
##nts
250
admit
ant
axis
boxes
chose
eggs
inspiration
marine
measured
multi
pakistan
physically
polio
recording
resolution
shall
sphere
statement
therapy
toy
wine
younger
##be
##cks
##ily
##ose
##point
accurate
amounts
chicago
combined
creature
dramatic
ears
hits
length
logic
outcomes
placed
player
section
solved
solving
unusual
##cular
##els
##rous
ages
bones
busy
climb
clothes
defense
educational
enable
fake
features
horrible
insight
invent
limits
magnetic
mistakes
score
senses
struck
sunlight
wherever
wire
##ens
##her
##inate
##ration
##tical
21
angeles
band
bar
borders
boring
channel
error
evening
evolve
grab
meaningful
mice
mistake
monkeys
parent
performing
ph
reference
rising
surely
teams
topic
##atic
##ria
##ulated
2007
abstract
atoms
bet
capitalism
circumstances
economists
exposed
flowers
framework
functions
german
islands
linked
somewhat
stayed
stream
taste
trend
##gation
##ied
##matic
##set
behavioral
cents
comfort
consumers
egypt
element
equally
feeding
illegal
laptop
obama
passionate
players
rocks
secure
sensors
sets
shoot
soft
steve
subjects
succeed
tax
unexpected
wireless
wondered
##een
algorithm
arab
aspects
boston
button
chaos
co
continued
distributed
equation
falls
figures
flew
grandfather
grows
inequality
jail
overall
policies
privacy
provided
relate
severe
split
toxic
##ase
##by
##mal
##uous
2009
blow
classic
closely
combine
conclusion
cooking
defined
depend
elephant
explained
faced
fruit
greenhouse
june
pushing
rational
sight
strangers
thin
tracking
transparency
treating
##house
##sis
##ust
##za
africans
agency
dinosaurs
emergency
exploring
fears
feature
grain
gray
handle
interactive
interestingly
lake
mirror
nose
obsessed
offered
painful
pm
providing
queen
records
reverse
scan
staff
tall
technique
zoom
##ail
##ering
##hed
##ome
##uity
applications
bias
carried
chart
connecting
dense
dozen
exhibition
hang
imagined
lung
paradigm
paris
recognized
savings
seeds
shake
sports
sweet
tom
##ak
##ative
##co
##lock
##ok
##pers
allowing
assume
audio
automatically
border
breathe
christmas
concepts
decline
disappear
experiencing
extent
floating
golden
mix
puzzle
reported
scary
signed
spreading
suffer
surrounded
##ade
##logists
##ory
##ule
abuse
anger
angry
clouds
danger
disorder
divide
existed
fingers
fishing
integrated
interview
liver
ought
plans
receive
recognition
rocket
suggests
title
transformed
underwater
##als
##ean
##fied
##hood
##rant
23
advice
alzheimer
celebrate
com
council
curiosity
escape
fixed
harm
internal
korea
latest
overcome
plays
populations
presence
removed
roots
selection
smile
standards
string
tasks
thomas
##bed
##ined
##res
##rn
##side
##tory
##uit
##use
##vable
animation
apartment
appropriate
aside
balloon
birthday
careful
colony
contrast
cooperation
disorders
drove
efforts
elections
facial
federal
fortunately
gut
habitat
legacy
maintain
ooh
pink
suit
welcome
youth
##ces
##hy
##its
##ively
##logist
##op
##ster
appears
captured
controlling
crying
density
dignity
domestic
dot
dramatically
fifth
hero
heroes
identical
micro
microscope
needle
paintings
season
silent
solid
sweden
traveled
unclear
whales
##ff
##ient
##ives
##py
##uck
60s
application
bee
collecting
corporate
diabetes
distant
drinking
ear
enemy
engaging
expert
grass
hello
iron
joke
journalist
latin
lets
methods
ours
plenty
pocket
poorest
rice
samples
searching
surgeon
wanting
##bit
##ction
##lies
90s
agreed
component
destroyed
estimate
frozen
historical
hollywood
inspire
insurance
neighbor
neuron
official
precisely
presented
raising
reaching
robotic
stanford
truck
##eo
##ray
##ses
##ver
800
advertising
guide
height
housing
hunger
layers
measuring
mess
obesity
plate
powers
prices
silicon
stands
tea
thrown
witness
writer
##ining
##one
##uation
##ude
19
amongst
banks
cheaper
conventional
depending
dh
dust
electronics
fed
gonna
hungry
increases
limit
ms
olds
optimistic
orbit
privilege
proof
pushed
shirt
sisters
stock
symbol
underground
vertical
##dle
##ior
##lap
##ress
##rine
##work
2005
27
65
barely
commitment
cook
courage
designs
drill
equality
gather
hearts
higgs
kingdom
laser
leap
loud
mammals
organize
papers
peer
philosophy
pool
produces
root
scratch
uncomfortable
units
usual
##car
##do
##ines
##nic
##orn
##ump
##zed
700
accepted
achieved
actor
adding
chest
classes
cow
customers
cute
destroy
entered
farmer
host
ignore
incentives
infinite
islam
lovely
mainly
nest
phrase
picking
practices
prototype
variation
whale
wheel
##ell
##gram
##kes
##load
##uate
##ub
##ulation
##verse
##zation
2004
70s
accessible
angle
atlantic
chocolate
colleague
debt
dimension
educated
extract
ghana
globalization
hardly
hardware
improvement
includes
interactions
invite
manhattan
meetings
missed
origin
passing
productivity
ring
script
sir
tries
##ale
##ches
##lands
##rk
##sa
##ti
##tter
appeared
breaking
capita
delivered
directions
dolphins
embedded
expectations
fascinated
flower
forgotten
gates
globally
guns
hill
ideal
laid
laugh
license
males
mayor
milk
narrator
operations
pace
parties
personality
pilot
regime
relations
responses
shock
shut
slides
thirds
toilet
underlying
wikipedia
##ald
##iring
##ished
##ris
##tain
agenda
ain
apparently
burn
communications
dan
entertainment
extinct
frequency
infection
luck
nets
objective
orange
presentation
properly
pure
religions
rely
secondly
telephone
tired
touched
trends
tube
vital
voting
worker
##ap
##cal
##cus
##mi
##no
##ological
##vy
##ways
adapt
app
attached
bay
breathing
chimpanzees
clever
consume
dioxide
dirty
essence
functional
golf
interacting
involves
lifestyle
neighborhoods
observation
powered
provides
psychology
reflect
richer
robert
shoulder
simplicity
stores
tap
villages
walks
wing
##bi
##cies
##gon
##gy
##ica
##ta
cash
circuit
committed
contract
diverse
fan
flexible
friendly
granted
herself
locked
mechanisms
naked
parallel
pile
rio
route
shooting
speaker
stable
translate
twenty
virtually
##ight
##im
##ni
##right
##sed
2006
airport
arctic
ate
beliefs
brief
citizen
concern
desk
discoveries
divided
focusing
funded
genius
gulf
hire
inch
killer
lecture
loop
muslims
oldest
opposed
output
protecting
psychological
resistant
rush
secrets
skull
subtle
surveillance
ugly
##ana
##berg
##den
##ess
##fer
##lo
##net
##ony
academic
afterwards
alien
autonomous
backwards
beer
bf
biologists
continues
dependent
drawn
dress
elected
elsewhere
fabulous
football
footprint
frank
garbage
harvest
jim
pig
recovery
represented
rwanda
sciences
seek
shame
stations
sticks
symmetry
synthetic
transplant
##ab
##aries
##ert
##ils
##mes
##nes
##pa
##water
adam
advance
aircraft
announced
anonymous
biodiversity
briefly
chapter
contribute
crucial
diagnosis
doors
enabled
furniture
haiti
hanging
identified
illusion
martin
october
pointed
refugees
reputation
scales
sculpture
seats
seed
texas
treatments
##ators
##ba
##cating
##cted
##fish
##ram
80s
circles
club
consequence
crops
dictionary
ending
expanding
extended
filter
flag
flip
fought
founded
fusion
gradually
holds
likes
microsoft
native
slavery
spiritual
threw
tower
uncle
wired
yours
##lines
##lt
##tte
##ured
95
affordable
agricultural
blah
blog
cats
counter
dozens
fiber
fuels
hackers
index
ingredients
italy
letting
load
meter
monitor
nerve
owner
permanent
photography
primarily
rapid
rat
returned
spider
spots
terror
thick
tragedy
victim
weak
##ality
##back
##ges
##mon
##ric
##ures
##zy
120
32
accidents
affects
architectural
bg
boundaries
calculate
ceiling
confident
controls
cord
dedicated
earthquake
emerged
ethiopia
expansion
hitting
inevitable
lens
lift
mad
mixed
muscles
originally
pack
particle
permission
programming
rarely
reports
scores
spectacular
stages
suggesting
symbols
till
transport
universities
wildlife
##aking
##au
##culation
##mark
##od
##ography
##ort
##pped
##room
##stic
##tal
##uing
##ul
##ural
##uses
##vo
2011
assembly
behave
bicycle
bike
blame
capability
chips
conflicts
contain
contemporary
darkness
diagnosed
disability
drivers
ed
fabric
facility
flows
governance
ignorance
impacts
initial
innovations
intense
labs
links
neural
nobel
odds
organizing
passwords
plot
prefer
prepare
reminded
reveal
served
session
shark
shelf
tag
##bing
##inated
##lating
##ologists
##shed
##ult
antibiotics
assumptions
begun
broad
category
chances
characteristics
confused
contains
daughters
depth
disappeared
ecosystems
edges
emerge
ethical
exponential
failing
favor
fluid
highway
imaging
initially
jewish
neuroscience
opens
opera
physician
polar
pump
repeat
rescue
silly
simulation
soviet
spinal
teenagers
terrorists
uganda
views
##ham
##ites
##ivity
##posing
##rts
##ury
actors
ad
bears
bell
bible
chief
clients
dear
economist
engineered
entering
exception
farming
figuring
finds
grandchildren
headed
kick
makers
measures
methane
mosquito
nurses
penguins
photographer
pyramid
review
sensory
speakers
stranger
strategies
surprisingly
tour
transfer
tumors
##graphy
##ina
##li
##off
##oid
##tone
##unt
##ying
1990s
2003
26
abilities
artistic
cable
cambridge
clay
compete
county
discuss
document
download
gotta
initiative
inspiring
investors
jihad
landed
mary
owned
partly
photographed
precise
promote
reduced
separated
sleeping
smarter
smoke
smooth
soldier
struggling
surfaces
targets
terrifying
transmission
unprecedented
visited
widely
winning
##ane
##book
##di
##dication
##eral
##gue
##ility
##inating
##irs
##lla
##mic
##ord
##ville
aim
chosen
civic
congo
cry
dialogue
established
gods
grateful
heaven
informed
insect
matrix
mode
optimism
oxford
perceive
pound
predicted
reform
ridiculous
rough
salt
stops
suggested
terrorist
threatened
tied
tip
transparent
##ew
##lessly
##list
##ura
2001
array
besides
buried
cast
corn
corporations
crossing
delivery
depressed
diagram
dig
documents
enables
engagement
excuse
explosion
extend
frustrated
greek
immediate
laughing
leverage
mate
pen
physicist
pigs
poet
pulling
rb
robust
sacred
saturn
sentences
shopping
sons
suffered
toys
trucks
unbelievable
weapon
wings
wise
##ast
##cence
##cked
##fully
##hop
##iest
##ject
##ologist
##ota
##rated
##ren
##tle
adopted
attitude
bond
boom
bubbles
circuits
constructed
demonstrate
detailed
determined
dolphin
drew
elderly
expertise
explaining
extinction
forming
instructions
intuitive
jumped
microbial
observe
origami
painted
pairs
printer
probability
proper
realm
rolling
rome
shrimp
someday
spain
spoken
storm
storytelling
tackle
tears
theories
traditions
tricks
upset
##bling
##gle
##hand
##ison
##lly
##og
##ribute
##ules
##west
agencies
answered
attract
canopy
choosing
climbing
computation
conclude
description
dinosaur
earn
encounter
ensure
flash
fragile
genetically
geographic
glad
ha
investing
islamic
journal
lighting
magical
magnitude
mall
myth
nutrients
orchestra
prediction
react
realizing
reliable
rivers
scenario
trains
tuna
unable
volunteers
##erative
##gate
##han
##iness
##let
##nsive
##ole
##rial
##rian
##uba
achievement
additional
administration
agent
arrive
assets
brave
channels
charity
combat
consistent
database
errors
excellent
expectancy
florida
friday
gaps
honey
industries
linear
nurse
occasionally
participation
peaceful
pitch
positions
printed
reefs
refugee
remembered
shadow
similarly
steal
strike
subway
supported
tank
threats
tie
tissues
unlikely
van
vessels
warning
wheelchair
##art
##ered
##fe
##hing
##ifying
##ius
##print
##rge
##rin
##riving
##tch
##van
##we
author
bucks
cartoon
categories
ceo
closest
clothing
command
conservative
copyright
entropy
extension
fastest
ford
genocide
graphics
injury
liberal
merely
miracle
mobility
mri
musicians
neat
norway
parks
pretend
qualities
rays
restore
rose
russian
safer
sheep
sheet
sits
stones
successfully
survived
talent
translated
uncertainty
##bia
##box
##cs
##ening
##head
##ool
##pies
##ran
##rey
##zi
adapted
adventure
airplanes
antarctica
badly
barrier
bars
bob
burden
capabilities
caring
cheese
collaborative
convert
derek
empowered
estate
february
fibers
flowing
foods
glacier
household
humanitarian
instant
institutional
isolated
jesus
journalists
keyboard
lawyer
lawyers
narrow
openness
primitive
radically
rebuild
recover
regret
serving
shell
shelter
spanish
whatsoever
##ave
##bert
##ptic
##scent
##tling
##ume
##une
analyze
camps
caves
compelling
corals
courses
deaf
demographic
deserve
dominated
empire
experimental
footage
funds
garage
handed
holy
horizon
imagery
independence
jack
jellyfish
knee
limb
luckily
mail
mold
motivation
panel
peter
plug
posted
poster
reduction
regardless
remarkably
representation
silver
skeleton
staying
tragic
venture
##bet
##bra
##cation
##gging
##iting
##j
##oring
##otic
##ots
##pes
##posed
##tics
##ugh
##und
##vant
anxiety
asks
baseball
breaks
colonies
compassionate
continuous
cotton
damn
demonstration
distinct
domain
dressed
eaten
entrepreneur
external
fortunate
glamorous
glasses
hired
improved
improving
inches
included
innocent
mama
medication
mysterious
outer
palm
profoundly
quest
quit
reef
replaced
sharks
shifting
strongly
tension
tsunami
viral
wash
##ances
##care
##cute
##eding
##end
##iate
##lon
##mates
##mit
##ng
##place
##rush
##try
##ulator
##wood
1980s
2012
academy
applying
approaches
arrested
bats
binary
blowing
bored
breakfast
christian
cosmic
discovering
drawings
drones
ecological
eric
expecting
explains
factories
firm
gases
graphic
helpful
hip
homo
kevin
knife
listened
located
lord
marry
medicines
moore
nearby
neck
newspapers
offices
oxytocin
participants
performed
physicists
plain
portrait
predictable
predictions
preparing
propose
prosperity
prostate
reducing
reminds
seas
spin
stability
stroke
structural
telescopes
upside
vacuum
wider
##ac
##active
##amp
##ang
##bc
##city
##cture
##ders
##ential
##fication
##herent
##imize
##ited
##lic
##pass
##vise
2050
approaching
association
astonishing
bedroom
bottles
colored
competitive
december
district
elite
encouraged
estimates
facilities
fraction
gathering
generous
glamour
healing
hypothesis
landing
mathematicians
mining
nerves
parkinson
replicate
scenes
simultaneously
sport
st
substance
sunday
tends
throwing
trajectory
versions
wandering
wires
writers
##beria
##eer
##etic
##gic
##ini
##las
##mented
##pressed
##rus
##sters
##ually
##ung
##ux
##vent
analogy
asteroid
ben
blank
cellular
chromosome
client
concert
confront
connectivity
connects
currency
difficulty
discipline
downtown
drone
educate
em
geometry
gore
historically
insights
insulin
interior
loving
mindset
mk
offers
officer
olympics
parliament
perceived
proposed
seeking
stays
ticket
tim
toes
tracks
trash
tribes
ubiquitous
worms
##ages
##burgh
##ern
##field
##iles
##nate
##nia
##ola
##ood
##ph
##row
##ull
1950s
1960
85
affairs
agents
armed
belong
bend
bizarre
blindness
boss
chairs
claims
closing
comment
covering
customer
cyber
deforestation
demands
devil
dive
donor
excitement
females
gallery
healthier
helicopter
huh
humor
ill
infections
interpretation
intervention
interviewed
invested
mainstream
meal
navigate
nights
precious
preserve
professionals
publish
relief
remaining
revenue
rhythm
robotics
seemingly
selfish
senior
ships
shit
smoking
spacecraft
washing
wheels
woke
##ake
##are
##brating
##fying
##ki
##mo
##more
##nder
##oot
##power
##ption
##thic
##uish
##ula
##uting
##well
2015
absence
advances
amazingly
assumption
atomic
attractive
balls
beijing
column
conducted
continuing
crop
damaged
delhi
disabled
disney
diving
drops
estimated
fathers
glue
grandparents
happier
homeless
instantly
intensive
italian
johnson
kills
marrow
mechanics
memes
morality
nelson
offering
ongoing
password
personalized
planetary
previously
pro
procedure
rats
recipe
reflection
resilience
sharp
shots
specialized
static
stepped
storage
stored
surgeons
suspect
taliban
taxes
terribly
trauma
tunnel
vacation
volunteer
zones
##ache
##aving
##bie
##cope
##cover
##dies
##eration
##fect
##gan
##ground
##ift
##ivate
##lize
##lves
##nge
##rove
##sts
##uction
##uel
##umbling
##unk
activists
alexander
asian
authorities
beating
beautifully
bin
bombs
branches
burned
chile
chimpanzee
comments
comparison
compounds
constraints
continents
contrary
curriculum
dawn
decrease
dish
ecology
exposure
generating
grace
handful
harbor
harmony
hated
headlines
historic
honestly
judgment
july
limitations
loan
loves
magnificent
nuts
observed
panels
paradox
passive
portion
prosthetic
purposes
retirement
shanghai
socially
ss
straightforward
supporting
tendency
tongue
translation
trigger
variations
wheat
yield
yourselves
##ama
##cure
##date
##eek
##ently
##ig
##kins
##pose
##pted
##q
##reaking
##sal
##tail
##tary
2002
28
acknowledge
agreement
ak
alcohol
algae
annual
arguments
articles
bathroom
beneath
brian
comet
comic
completed
crack
curves
cuts
cycles
el
electrodes
failures
fancy
fate
formula
fortune
gathered
gentleman
hopes
jane
lifted
machinery
maker
measurements
mosquitos
nutrition
pandemic
passenger
pet
pharmaceutical
planes
plastics
poems
proportion
pulse
realistic
recognizing
refer
request
rituals
saharan
sanitation
scanning
scott
slums
smallest
soup
succeeded
surrounding
tone
tribe
vegetables
waters
##0s
##aches
##dam
##ea
##eat
##fi
##fold
##lash
##llas
##mia
##onic
##ored
##plied
##po
##rit
1960s
1970s
activist
audiences
bags
believes
berlin
branch
bug
chronic
cliff
coach
collapsed
consumed
cooperate
counting
desperately
dilemma
dung
duty
elephants
expedition
expressions
farms
fits
follows
frightening
graduated
homework
hook
hunting
ignored
illustrate
impressive
installed
intensity
intuition
israeli
kidney
logical
manner
meanwhile
monitoring
mood
nick
occurs
pan
paralyzed
pause
prince
proved
reactor
remembering
researcher
romantic
selected
sensing
sensor
signature
simpler
sink
soap
strategic
syndrome
syria
teenage
terrified
therapies
thus
transmit
tune
william
wore
##and
##ank
##ax
##born
##ching
##dder
##ime
##ional
##kers
##mation
##nite
##omics
##tt
##uration
##urs
##used
##uts
36
accountability
attacked
bacterial
bat
breakthrough
bridges
broader
collectively
communicating
concerns
construct
correctly
crimes
deepest
default
delicious
denial
dominant
dopamine
fbi
gabby
genetics
hunt
indonesia
infant
ink
kindness
locally
luxury
marker
mike
minority
ngos
package
peers
pigeon
pill
precision
ratio
reasonable
revealed
scanner
sexy
sheets
smith
stasi
striking
sustain
tony
uh
urge
utterly
wedding
##ancy
##ats
##bits
##bow
##cho
##cycle
##day
##eep
##ency
##ese
##hips
##ibly
##iled
##iling
##ipe
##iro
##iving
##lan
##ners
##old
##port
##pression
##sist
##ubs
##uce
##vised
##wing
33
accounts
ai
amazed
andrew
arabic
belt
blew
blown
boundary
bruno
calories
clinton
coke
compromise
crispr
democracies
devastating
dies
dynamics
equity
evolving
exploit
extraordinarily
fires
freely
grades
hacking
heading
intention
investments
jet
label
leather
lego
lit
literacy
lowest
mapping
melt
minus
motors
narratives
overwhelming
packed
partnership
peoples
phenomena
politically
pride
prior
profile
protest
rape
reactions
readers
recycling
residents
safely
sale
separation
shocked
stretch
sw
swiss
temperatures
theoretical
traits
transforming
tropical
via
worthy
##ads
##bble
##code
##erial
##lessness
##lk
##makers
##ncies
##ployed
##rive
##rupt
##ship
##tate
##tered
##uke
abundance
accomplished
adjust
alternatives
ambitious
argentina
assistance
august
authentic
bangladesh
believing
bite
builds
bulb
cage
challenged
clarity
cleaning
commons
covers
cows
crew
destroying
doubled
electron
encouraging
endangered
ethnic
feminist
file
forgot
hat
implant
influenced
intersection
koran
laughs
manipulate
masses
mentor
motivated
orders
origins
phenomenal
pointing
purple
qaeda
republic
ritual
rope
satellites
saudi
screening
shortly
singapore
sixth
smartphone
soccer
speaks
stack
suck
symphony
ties
titan
trace
trapped
tubes
wealthy
winds
zealand
##ame
##coming
##fies
##gie
##gos
##ially
##idal
##ja
##lar
##lor
##mist
##mists
##nant
##oman
##ond
##ories
##pel
##quate
##rail
##ser
##shing
##uan
##ubble
##view
##vision
29
50s
activate
adopt
alarm
altitude
apartments
approved
assemble
bow
calm
cap
captain
carolina
chains
competing
computational
consensus
corners
dancers
despair
diameter
discrimination
dose
dutch
earliest
fallen
farther
gandhi
goodbye
isolation
jh
likelihood
lions
locations
monterey
mushroom
nodes
obstacles
planted
priority
probe
pursuit
refused
resolve
revolutionary
rings
sadly
sales
sandwich
scans
selves
skeletal
smallpox
sooner
sperm
staring
switzerland
teenager
thirty
vary
visualization
voted
welfare
woods
workforce
worrying
wound
##aker
##ash
##athan
##bility
##case
##ci
##down
##esis
##gged
##graph
##iated
##iel
##ith
##izes
##ken
##oon
##orous
##osphere
##over
##pad
##pic
##rio
##rry
##sisted
##ttered
##umble
##vated
1990
1998
abandoned
accuracy
aesthetic
affecting
afghan
april
automobile
banking
batteries
bold
cake
calculations
candidate
charter
chase
classrooms
climbed
clue
commit
criminals
dating
defend
describing
destiny
detection
documentary
dough
elegant
enterprise
entry
fever
flavor
foundations
frequently
gained
gorgeous
grasp
greenland
habits
halfway
hardest
hiding
hometown
hopeful
impression
inevitably
installation
jupiter
kiss
leaf
lg
lonely
longevity
lungs
mandela
mankind
mesh
microphone
mimic
musician
namely
nonetheless
observations
officers
org
pants
pills
platforms
pockets
pray
profits
promised
proposition
raises
receiving
relation
repeated
reporting
rotate
routine
stopping
strings
teaches
twin
unhappy
vessel
vietnam
visualize
##ack
##ato
##berry
##eds
##ex
##flies
##hs
##iance
##icial
##ino
##ired
##jection
##len
##lity
##lus
##mp
##oses
##station
##tained
##ught
##uise
##ulture
##urity
##ush
##vine
##ys
##zard
2020
absorb
aged
alpha
astronomers
behalf
biologist
bother
clubs
coat
contributed
convey
corporation
demonstrated
describes
diarrhea
disgust
distances
emergence
enforcement
equations
expanded
fifty
flesh
genomes
girlfriend
glimpse
greece
grocery
hawaii
heritage
hong
hoped
infectious
inherently
injured
integration
intent
introduction
joint
landscapes
legislation
lock
mammal
mud
murder
november
nowadays
nsa
opinions
passage
paths
perspectives
philosopher
prevention
profession
proposal
pursue
realities
refuse
reproduce
responded
restaurants
rethink
retina
sacrifice
scaling
seal
sectors
sends
smells
spinning
stolen
subjective
summit
supermarket
tear
territory
touching
trivial
typing
wrap
##ball
##beration
##cco
##cker
##connect
##cratic
##dor
##ep
##ession
##ference
##fing
##fur
##gers
##ience
##ima
##inal
##keepers
##kton
##lm
##pelled
##ques
##ret
##rrow
##runk
##sible
##ua
##uated
##uating
##ued
##ulus
##vian
##wed
##wl
##ynthesis
18th
42
55
900
acid
aggressive
antibiotic
apollo
approached
assignment
awkward
backyard
bamboo
barriers
calculus
canyon
carpet
cart
catching
comedy
comparing
concentration
contributing
controversial
coverage
creator
criteria
crossed
deck
disabilities
division
drag
enemies
enjoyed
fired
formation
gardens
guarantee
harmful
icon
insane
integrate
items
jeff
joe
leonardo
li
logo
manager
marketplace
mathematician
maximum
meals
minimum
nano
nearest
neutral
noises
obese
overwhelmed
ownership
patents
practically
predator
pulls
quarters
reflected
remained
renewable
representing
risky
roles
secretary
shine
shipping
shy
significantly
sizes
slime
stephen
stomach
strip
suspended
systematically
tanzania
terrain
texting
un
universes
ups
useless
visually
watson
winner
wrist
##ains
##ception
##che
##cious
##eal
##erry
##eze
##fic
##gia
##gies
##ilt
##imate
##lated
##laws
##lets
##mas
##minate
##ntly
##oss
##psy
##rative
##rise
##town
##uctor
##utan
##vel
##vitation
##ws
adoption
ads
aliens
appeal
appearance
approximately
artwork
attitudes
basketball
beaten
beetle
bound
brooklyn
cartoons
clinics
columns
congestion
constitution
converted
cosmos
countless
cube
destination
documented
eliminate
empower
establish
festival
findings
formal
foster
henry
hunter
imagining
immense
implemented
jones
labeled
lap
lethal
lincoln
lion
miserable
momentum
mount
occupy
occurring
optical
ordered
panic
peculiar
philanthropy
poison
port
portraits
prisoners
proven
reaches
regulation
relatives
santa
screaming
seattle
sequences
seti
shifts
simplest
supplies
supreme
targeted
threshold
thrilled
thumb
transmitted
unconscious
virginia
visiting
voters
##ails
##akers
##aneous
##cate
##cher
##ease
##fall
##he
##isms
##lete
##lu
##nue
##ote
##oth
##otive
##pace
##ple
##rates
##rator
##tts
##unction
##version
##vin
##vis
1980
2014
96
abundant
advocate
aluminum
anticipate
avatar
award
ban
boats
bowl
bullet
burst
calculated
classical
collaborate
collision
concentrated
consuming
crude
deals
desktop
dirt
dumb
electrons
emotionally
engines
fda
grant
grave
gravitational
guard
guilty
horses
ibm
iceberg
ideology
implement
incentive
incident
informal
intimate
investigate
jews
loans
losses
lp
ma
melting
millennium
officials
olympic
overnight
pays
physicians
pour
privileged
psychologist
resist
shakespeare
sized
slice
slower
sometime
surgical
switched
tables
ton
usa
wet
##agan
##ager
##ass
##away
##bable
##bby
##bees
##cidence
##cre
##ctions
##dation
##dge
##ees
##ein
##etal
##gh
##iary
##imeter
##itor
##itude
##ivating
##ller
##long
##lve
##mate
##mmer
##oe
##oil
##ones
##oning
##plication
##rable
##rent
##rified
##rse
##rust
##sia
##stitution
##sy
##ther
##via
##vid
130
2030
72
acceptance
accomplish
activated
aristotle
armor
athletes
bio
biosphere
campus
carries
catholic
celebrity
ceremony
charlie
cinema
commodity
condoms
contained
continuously
crap
desperate
diagnostic
embarrassing
enjoying
entities
expressed
firing
format
gear
habit
happily
hemisphere
identities
inclusive
indicate
ingredient
innovate
install
item
jersey
lands
liberty
livestock
membrane
messy
multiply
mushrooms
nevertheless
owners
palestinian
passes
periods
playful
pregnancy
preparation
publishing
punch
punishment
rainforest
rains
raped
realization
reviews
royal
sake
segment
sequencing
spatial
stepping
towers
traditionally
transit
troops
turkey
wasted
websites
whoever
workplace
##13
##ali
##ao
##ased
##ced
##cial
##cination
##dal
##eak
##ect
##em
##lical
##mentation
##mism
##nter
##omic
##onald
##ong
##pping
##rew
##table
##take
##tation
##tering
##tly
##unts
##ups
##weight
1950
20s
48
abed
accelerating
acquired
allies
alongside
analyzing
apes
associate
astronomy
atom
attach
bacterium
biases
brands
bronx
cardboard
cared
cattle
charged
chemotherapy
chimps
composition
convicted
decent
deployed
determines
diamonds
discussing
discussions
distinction
drum
elevator
embracing
empowering
exceptions
fence
gasoline
geography
grains
hierarchy
humility
iconic
indians
indus
intended
interpret
involve
ireland
journalism
kennedy
kicked
knock
kong
laughed
lottery
lt
manual
mere
prisons
procedures
propaganda
protective
prototypes
redwood
representative
rover
rubber
screens
sensation
shining
skeptical
spare
stadium
steam
steven
stimulation
sufficient
talented
technically
tent
thrive
triangle
truths
uniform
usage
utility
witnessed
yard
yards
youngest
##ai
##amine
##arily
##ata
##atts
##bes
##brate
##cracy
##dicate
##ents
##eon
##ett
##ght
##grade
##hical
##hot
##iatric
##igating
##itate
##lent
##liers
##maker
##nating
##nding
##nent
##ographic
##ono
##pit
##press
##pressing
##rance
##ressed
##rium
##rot
##spect
##ths
##tis
##topia
##tude
##ugal
##uncing
##urable
1999
350
ancestor
anniversary
attracted
augmented
barrel
belly
belongs
benjamin
bills
buses
candidates
civilizations
clips
coastal
conduct
contribution
counted
crystal
cyrus
decides
deciding
defining
detector
dictionaries
diplomacy
disturbing
ebay
economically
egg
egyptian
emma
enabling
explored
eyed
forgive
frames
frontier
gains
glucose
guitar
interconnected
intimacy
iranian
jam
jazz
judges
jumping
laptops
log
loose
managing
masters
metals
millimeter
ministry
mutations
naive
nigerian
norden
pipe
planned
predators
prescription
psychologists
rent
rna
scheme
scream
select
shore
smiling
streams
tiger
tiles
transformative
ultra
understands
virgin
virtue
ward
widespread
##alt
##asis
##eering
##ginable
##hamed
##hill
##hou
##icides
##like
##logical
##mber
##metric
##mission
##ock
##ogram
##olas
##oop
##raine
##rassed
##say
##scend
##si
##sted
##stitute
##uge
##ulators
##umes
##urge
##urger
##vae
##xy
acquire
alright
applies
arrest
assumed
asthma
atlanta
attributes
behold
berkeley
brazilian
breeding
brick
census
chamber
chef
choir
cola
commission
compound
compute
consent
convenient
convention
cruel
cylinder
deadly
disciplines
disk
dropping
edit
enormously
episode
eve
everest
fault
fisheries
fraud
freezing
functioning
generates
gesture
gross
habitats
horizontal
hormone
hormones
implanted
injustice
intact
investigation
joshua
lanes
launching
maintenance
mapped
measurement
meets
modest
mumbai
negotiate
networking
nike
occasion
offspring
parenting
pencil
penguin
phoenix
producers
promising
racing
recession
recommend
recycled
reflects
regenerate
replacing
reserve
returns
rises
saturday
scaled
schizophrenia
semi
settled
shed
shocking
shops
ski
spreads
staircase
statue
strands
suggestion
symmetrical
systematic
texts
toll
topics
touches
traces
trips
tuberculosis
tuned
viewing
von
waited
wrapped
yeast
##91
##ath
##aw
##bean
##cd
##cess
##copic
##ecutive
##ek
##elly
##encing
##era
##fill
##gnet
##gnition
##gration
##heads
##hen
##hes
##heses
##hew
##iding
##ids
##igation
##ilos
##ker
##licit
##mental
##mous
##nation
##nics
##outs
##rc
##rce
##rence
##ridge
##rim
##ssion
##taining
##tting
##urb
##usted
##utants
##uted
##worthy
##ya
##ye
accelerate
acceptable
achieving
actively
addressing
aims
altogether
analog
analyzed
asset
bind
blogs
boiling
bonds
broadcast
cafe
cardiac
charges
coca
codes
conditioning
cooling
copenhagen
cups
custom
dare
deficit
deploy
digging
elaborate
employment
exhibit
exotic
fantasy
feeds
fi
filling
fragments
generic
hallucinations
headquarters
horror
hybrid
intentions
interventions
interviews
ipod
jerusalem
junk
justify
keys
kilometer
korean
league
lhc
lists
luther
managers
mask
memorial
minded
minerals
modeling
mycelium
newton
norms
onstage
parasite
partnerships
perceptions
pit
planting
pleased
practicing
prey
programmed
programmers
progression
projection
publicly
racism
recall
receptor
regularly
revolutions
sculptures
seals
shoe
siblings
slowed
spill
stake
sticking
temple
terrific
tesla
themes
tightly
tokyo
trading
trap
travels
twist
ultrasound
ultraviolet
veterans
visions
whistle
wiped
wishes
wooden
yemen
##75
##ace
##aks
##aming
##arian
##asurable
##bos
##cators
##conds
##ctor
##dated
##ever
##fusing
##fusion
##gated
##hers
##ho
##ilation
##iracy
##iss
##lation
##law
##licate
##lings
##live
##lix
##lls
##loaded
##mill
##nated
##nies
##non
##oids
##omy
##onomy
##piece
##plain
##ptics
##reak
##rect
##rip
##roll
##sions
##top
##tra
##uced
##uct
##uits
##xes
##yard
##zer
37
43
adds
alaska
arguing
atmospheric
authenticity
authors
automated
basement
beam
borrow
canadian
canvas
caps
cares
celebrated
checking
chuck
confronted
consciously
considering
coordination
cope
danny
debris
deserves
dreaming
drunk
dylan
emails
enhance
entrance
entrepreneurial
ex
examine
float
folding
frequencies
friendship
gate
gg
grabbed
greeks
helmet
highlight
humble
indigenous
instruction
inventor
involving
jealousy
juice
kidding
knees
laboratories
lobby
medications
mentally
metropolitan
michigan
millennia
mixing
nasty
odor
operates
pat
politician
prevalence
principal
racial
reactors
relativity
remotely
rescued
sahara
serves
sheer
shifted
significance
sketch
specialist
squid
stairs
suits
sulfide
swing
tale
tangible
temporary
terminal
trailer
transported
tribal
trusted
tweet
variable
vice
vocabulary
weighs
zeros
##40
##aching
##ades
##ander
##ari
##aster
##atory
##burg
##cated
##cking
##clusive
##cript
##culate
##ech
##eeping
##eological
##fined
##fuse
##gen
##gles
##graded
##igned
##iment
##iry
##iti
##ket
##lify
##liness
##lood
##mary
##mitted
##ndon
##oam
##oking
##ously
##pense
##position
##rading
##range
##ringe
##ruce
##signed
##uistic
##umbled
##unce
##urbs
##vity
##zone
##zza
97
abroad
addiction
affair
altruism
ambition
answering
assistant
assure
asteroids
attempts
awe
beetles
brutal
budgets
bump
cancers
cape
checked
chess
cholera
cluster
cooperative
cr
craft
critically
delay
dependence
determination
detroit
donors
dp
duck
egyptians
empowerment
fails
famously
favorites
finishing
folded
frog
fruits
fungi
galapagos
gigantic
guards
harry
heavily
helpless
hmm
icons
inventions
jf
jungle
kit
laden
lamp
lane
lifespan
marks
mastery
metabolism
mines
mirrors
mt
multinational
nairobi
noisy
operated
operator
pad
passions
pathways
pot
pouring
presidential
prisoner
profitable
randomly
reader
reforms
rehabilitation
resilient
revenues
richest
riding
roofs
sensitivity
server
seventh
shoulders
sierra
snakes
sounded
spiders
stare
stressed
surround
surveys
survivor
symmetries
tedtalk
tide
toilets
viewer
volumes
warmer
washed
weekend
whoa
##20
##ado
##bee
##bian
##ccupied
##chy
##con
##construct
##eting
##fare
##ffer
##frame
##icing
##iented
##jan
##kind
##kle
##lay
##lized
##onia
##piration
##rds
##reck
##rm
##servation
##sin
##sistent
##stone
##stream
##tage
##tarian
##uff
##uggling
##uling
##ulk
##umen
##urd
##vators
##ware
140
1900
1984
30s
accountable
album
alex
altered
ambulance
anatomy
archive
arthur
artifacts
aunt
awake
beds
blessed
boots
chromosomes
circular
coin
collaborators
comparable
configuration
confined
convincing
correlation
cousin
crashes
daddy
delivering
demo
detected
disagree
discussed
disruptive
emerges
encountered
entrepreneurship
envelope
exponentially
fatal
filmed
filmmaker
fingertips
fixing
foie
folds
forty
friction
frogs
frustrating
glow
goodness
govern
gras
hatred
hills
honored
inform
instinct
leopard
linking
magazines
manipulation
matched
matt
metabolic
midst
milo
mini
monday
mutation
neanderthals
observing
obsolete
parachute
patch
penicillin
persons
philadelphia
premise
pricing
processed
regard
responds
ridge
rolled
seawater
shoots
shorter
skilled
somalia
spell
squares
stealing
storms
sucks
survivors
sylvia
tenth
thermal
thread
threatening
torture
translator
twins
update
upright
vocal
vulnerability
wages
weigh
worm
##16
##85
##97
##ading
##att
##auts
##bage
##bal
##berate
##bu
##cale
##claim
##clusion
##course
##ctured
##eers
##fa
##fly
##forced
##gize
##hield
##ilized
##int
##ires
##ises
##lai
##lared
##lax
##lined
##lowed
##mb
##mining
##nces
##nical
##nn
##nology
##nounce
##ntial
##oes
##oked
##orted
##ought
##porate
##pot
##productive
##pulsion
##rade
##rah
##rcus
##ream
##related
##rier
##roducing
##rries
##tee
##unted
##unting
##uo
##uri
##vert
##xious
##zes
44
52
98
accelerated
acres
adolescence
aggregate
airline
alan
assuming
attend
automatic
bandwidth
blast
boards
breakthroughs
bribe
buttons
cables
campaigns
clapping
cloth
clues
colorful
concentrate
conservatives
copied
corresponds
couch
courageous
cracks
cues
dancer
deception
disappearing
dishes
displays
eats
elementary
endless
es
ethanol
exam
expectation
flights
frustration
generosity
genuine
gestures
goat
hans
headline
heal
heh
highways
illustration
improvisation
infrared
injuries
invasive
irony
joseph
js
lately
lo
longest
loses
markers
matches
meme
metric
mexican
migration
mild
milky
modified
monster
museums
nanotechnology
neurological
newly
nitrogen
nonprofit
nonsense
norm
orientation
outbreak
oven
pathway
phrases
pie
poll
pressing
primates
protocell
protocol
purely
reasoning
regional
regulations
renaissance
respected
responsibilities
rob
romance
salary
settle
shipped
shrink
simulate
singer
snake
span
spends
spiral
spite
spontaneously
staggering
strikes
struggled
tags
textbook
texture
thankfully
tolerance
tuesday
unfair
unintended
upward
vegetable
velocity
verb
viable
vitamin
warrior
##45
##95
##ady
##ait
##ards
##beat
##bon
##changing
##copy
##ctic
##cting
##cuted
##dles
##erson
##estimate
##form
##gistered
##ild
##ilize
##ipped
##ira
##issed
##ivism
##lance
##lars
##lip
##mar
##mat
##mine
##mity
##mize
##nance
##nished
##nth
##ois
##ora
##osh
##pack
##pics
##rch
##rection
##requent
##ruption
##scribe
##stated
##test
##ttes
##uin
##ulous
##unity
##uss
##uter
##voted
##wa
##wn
1930s
1989
31
47
accounting
accurately
adaptive
addressed
admire
alike
angles
apples
argued
attacking
backs
beethoven
biologically
bj
brad
broadly
buddha
calculating
cellphone
chasing
chat
cheat
chickens
clicks
columbia
complaining
connectome
container
copper
corrupt
counts
craig
deliberately
delight
demanding
democrats
displaced
documenting
doses
doubling
dragonflies
earned
elizabeth
emphasize
endeavor
enters
epiphany
equipped
ethics
explode
exploded
expose
fees
floors
fox
gallon
glaciers
grandma
halls
heating
hop
households
hurricane
immigrants
incomplete
inflation
integrity
interfaces
jaw
kansas
lakes
lee
legally
lewis
liberals
mammoth
midnight
minor
missions
mutual
mythology
northeast
noticing
nucleus
oklahoma
opposition
outdoor
overhead
overseas
participating
pervasive
physiology
pin
posters
potato
preventing
primate
processor
pumps
puzzles
questioning
regulate
rejected
reuse
reveals
rooted
sailing
sang
satisfied
scanned
scientifically
screw
shaking
shout
slave
slowing
speeds
statistic
statistical
successes
surgeries
surviving
symbolic
tagged
tanks
tattoo
textbooks
thailand
thereby
tight
towel
towns
transferred
tricky
uk
unseen
wk
wonders
##70
##anas
##aring
##asing
##aze
##bar
##bird
##bited
##bodies
##bral
##brium
##card
##ceration
##com
##cro
##cution
##delity
##ear
##east
##ecast
##enna
##eology
##ept
##fire
##fs
##gas
##gence
##gled
##gnets
##iation
##ibia
##iful
##ips
##istics
##itarian
##itive
##itory
##lacing
##leasing
##locked
##los
##losure
##loy
##lywood
##marks
##mination
##name
##ody
##osed
##owning
##pedia
##poral
##pse
##pses
##raction
##rat
##reciation
##rily
##rist
##rities
##rong
##rosion
##roval
##sistence
##turing
##uilt
##uis
##uited
##ulent
##ursor
##vasion
##vene
##venience
##wards
##wind
##wise
17th
1994
64
accent
adaptation
adversity
apparent
arabia
arizona
arteries
asleep
bankers
baseline
biomass
bluefin
breed
buddhist
calendar
catastrophic
celebration
cement
censorship
closet
clusters
collaborator
collagen
contradiction
cooked
cookie
cousins
cream
critic
crushed
declining
derived
destructive
diamond
diego
disconnected
drama
draws
easiest
eighty
enthusiasm
enzymes
experimenting
explanations
fans
firmly
folk
frontal
fuzzy
gaza
graphs
greatly
grief
harness
helium
honesty
hung
improvements
impulse
independently
indicates
inefficient
infinity
inherited
instances
intel
intriguing
jason
jeopardy
johnny
jumps
larry
legitimate
lenses
libraries
loaded
loads
marked
massively
meditation
miracles
mm
moreover
motions
natasha
netherlands
ngo
noble
paralysis
payment
pedestrian
penis
pennsylvania
peru
philip
philosophers
picks
pipes
pleasant
prayer
predicting
presenting
princess
projections
rainfall
rainforests
randomness
reasonably
refrigerator
replacement
reporter
reproduction
republicans
rides
russians
sadness
saint
sarah
sensible
shower
sidewalk
simon
slope
slum
stigma
supportive
supports
throat
um
unacceptable
unfortunate
urbanization
urgent
vagina
variables
venice
venus
viewed
visitors
willingness
wins
wives
##!
##"
###
##$
##%
##&
##(
##)
##*
##+
##,
##-
##.
##/
##:
##;
##=
##?
##@
##\
##^
##_
##£
##¿
##æ
##ø
##τ
##ย
##ร
##อ
##–
##—
##’
##•
##∇
##♪
##♫
