[PAD]
[START]
[END]
!
#
$
%
&
(
)
*
+
,
-
.
/
0
1
2
3
4
5
6
7
8
9
:
;
=
?
@
^
_
`
a
b
c
d
e
f
g
h
i
j
k
l
m
n
o
p
q
r
s
t
u
v
w
x
y
z
~
£
¥
©
«
®
°
»
æ
ø
œ
α
ε
η
ι
κ
λ
μ
ν
ρ
σ
τ
υ
χ
ω
ย
ร
อ
–
—
‘
’
“
”
⁄
€
∇
≈
♪
♫
�
apos
de
et
la
est
le
les
que
un
des
nous
en
une
vous
ce
il
je
qui
##s
dans
pour
pas
quot
qu
du
plus
on
mais
ne
sur
ils
ou
ai
sont
avec
au
ca
si
ces
##e
fait
comme
cette
se
ont
par
etre
etait
avons
faire
tout
donc
elle
tres
peut
bien
cela
meme
quand
monde
##r
gens
notre
chose
parce
leur
mon
alors
##nt
me
dit
tous
aux
ete
suis
beaucoup
aussi
##es
vraiment
rires
deux
choses
autre
ans
moi
son
nos
comment
voir
vie
ici
maintenant
dire
autres
avait
quelque
entre
elles
votre
peu
avoir
ma
temps
##ment
pense
fois
pouvez
##z
voici
sommes
avez
non
encore
personnes
applaudissements
sa
annees
leurs
dont
##a
toutes
facon
passe
apres
juste
sans
enfants
pourquoi
hui
lui
aujourd
quelques
va
pays
mes
commence
besoin
pouvons
jamais
vais
chaque
merci
histoire
pendant
idee
##t
puis
etaient
veux
probleme
moins
toujours
ses
eu
seulement
personne
peuvent
##ait
bon
savez
cet
grand
trois
partie
moment
etais
##ons
soit
avant
parler
exemple
voyez
jour
quoi
toute
systeme
premiere
trouve
travail
ceci
question
tu
vers
depuis
car
maniere
etes
point
ainsi
grande
rien
avais
jusqu
##ant
eau
tant
sous
eux
voila
##n
assez
##i
petit
donne
ensuite
quelqu
pourrait
technologie
font
cerveau
vu
environ
000
donnees
aller
faut
##l
important
devons
cas
genre
##te
##ur
marche
millions
trouver
creer
utiliser
##o
femmes
vos
sorte
10
arrive
terre
prendre
demande
premier
comprendre
pouvoir
nouveau
parle
appelle
##er
homme
cote
peux
##aient
certains
avaient
etats
oui
deja
plutot
ceux
annee
simplement
ensemble
chez
nouvelle
sens
bonne
sais
quel
##ie
corps
train
##re
problemes
crois
montrer
savoir
##on
lorsque
donner
##ne
bas
plupart
jours
mettre
travers
mois
forme
unis
energie
trop
petite
##le
allons
dollars
contre
mieux
ville
doit
fin
projet
agit
sante
celui
raison
vont
lieu
veut
laquelle
serait
simple
experience
nombre
importe
pris
changer
##urs
musique
regardez
vrai
espace
argent
femme
pres
utilise
montre
compte
propre
penser
place
cree
memes
souvent
cours
ci
##ais
20
differentes
enfant
##y
sera
##u
realite
difficile
possible
autour
quatre
endroit
mere
passer
afrique
celle
cellules
seule
video
reste
maison
faisons
image
eh
dessus
gros
societe
part
quelle
ecole
##d
planete
seul
hommes
allez
milliards
faites
idees
pu
tard
air
change
mal
egalement
presque
##is
public
cause
##ent
regarde
niveau
aide
famille
savons
haut
changement
nature
type
essayer
nouvelles
groupe
mis
tellement
##c
humain
etat
moyen
epoque
plusieurs
lumiere
travailler
voulez
aime
internet
reponse
vue
partir
guerre
humains
probablement
avions
main
produit
photo
sujet
##m
petits
differents
travaille
pensez
long
certaines
construire
##ique
parfois
debut
face
esprit
science
30
100
cinq
signifie
aider
base
commencer
aurait
pouvait
vient
recherche
##ux
appris
questions
grace
completement
partout
pere
heures
apprendre
informations
peur
regarder
50
animaux
derniere
tete
decide
aucun
ligne
interieur
ok
an
mort
aucune
environnement
ordinateur
voiture
processus
univers
vivre
##me
##ation
voyons
mots
politique
developpement
livre
communaute
##se
amis
rendre
accord
##ions
modele
yeux
interessant
entendu
ni
combien
devez
incroyable
mesure
nourriture
effet
loin
voulais
grands
fais
meilleur
nom
##it
new
age
gouvernement
images
cent
fille
dieu
dernieres
exactement
voit
information
abord
existe
##h
jeunes
cancer
jeu
futur
siecle
essaye
lequel
appele
choix
art
capacite
devenir
disent
##use
dernier
##ite
##ine
##que
##ge
centre
histoires
91
##ra
##de
##g
93
parents
villes
inde
securite
maladie
##0
##al
oh
semble
film
decouvert
chacun
voulons
afin
equipe
dis
milliers
##p
sait
coup
mot
ressemble
ted
dois
voix
economie
fut
grandes
prix
propos
population
taille
##ez
finalement
rapidement
minutes
selon
imaginez
##age
##ts
compris
education
devant
mondiale
scientifiques
arriver
force
culture
endroits
##k
##x
enorme
six
15
importante
longtemps
machine
veulent
ecrit
jouer
chine
facile
reellement
design
meilleure
systemes
nord
porte
technologies
devenu
petites
sud
##us
devrait
humaine
different
fonctionne
##rait
##ale
permet
milieu
##in
entreprises
difference
attention
mouvement
gauche
plein
echelle
ait
deuxieme
york
obtenir
##ont
etudiants
nuit
##tes
croissance
entier
controle
##ure
aimerais
devient
suite
##ce
venir
pourtant
vies
vite
amerique
doivent
##lle
demander
entreprise
produits
super
nouveaux
##ve
chance
jeune
particulier
##ble
programme
puisse
droit
reseau
surface
40
confiance
imaginer
salle
etions
##tte
pouvais
voudrais
##les
droite
heure
soleil
solution
##able
centaines
terme
amour
laissez
realise
seconde
derriere
propres
universite
evolution
##isme
maladies
capable
moitie
##an
lorsqu
rencontre
##ion
photos
autant
pourrions
carte
##iez
##f
parmi
patients
physique
mer
termes
present
valeur
semaines
##aux
##ns
prend
partager
livres
resultats
semaine
resoudre
structure
economique
filles
sortir
construit
espere
certain
etude
durant
##ise
sortes
differente
##ient
adn
nombreux
##nes
lire
prenez
espece
produire
avenir
situation
sol
points
resultat
##ee
voyage
acces
metres
risque
etant
ocean
outils
raisons
fils
telephone
disait
rapport
vision
ordinateurs
pensent
matin
nombreuses
piece
aura
enfin
formes
objets
plan
pourraient
##aire
comportement
soient
especes
laisser
pensons
faisant
impression
premiers
taux
bout
reel
but
viennent
voitures
60
heureux
uns
fond
##rons
alle
modeles
ressources
celles
cœur
##isation
avere
faisait
scientifique
vitesse
pourriez
devrions
ailleurs
site
continue
americains
europe
vois
##ue
##ter
##b
allait
gars
utilisant
raconter
developper
##rie
expliquer
batiment
domaine
quantite
represente
##che
arriere
mains
reflechir
seront
lors
relation
##ier
developpe
scene
objet
pose
bonnes
voulait
qualite
chemin
etudes
groupes
##iques
journee
matiere
rendu
source
##res
conscience
espoir
laisse
##ner
troisieme
medicaments
certaine
defi
experiences
prise
##rs
langage
societes
meilleurs
approche
regles
traitement
truc
##iste
##tion
recemment
theorie
atteindre
jeux
surtout
tour
visage
##ir
general
impact
role
rouge
zone
assis
80
generation
mars
rend
##ement
demi
##ire
verite
vivent
rue
conference
tendance
chercher
mauvais
classe
compassion
ecrire
politiques
utilisent
acheter
##um
absolument
succes
sept
trucs
unique
dites
voie
projets
recherches
pouvaient
##ler
innovation
patient
savent
perdu
12
zones
##ule
peine
etc
instant
interesse
periode
types
##tique
crise
message
changements
bras
ameliorer
fini
virus
arreter
noir
region
tel
revolution
##ance
25
action
particulierement
##7
##ai
capables
glace
web
ami
faite
industrie
pauvres
bons
loi
petrole
rapide
democratie
sociaux
fil
violence
dela
cellule
moyenne
te
venu
animal
code
couleur
mauvaise
reussi
##tant
exemples
google
impossible
serie
200
elements
parties
social
humanite
million
soins
amene
disons
service
suivre
papier
construction
relations
etudier
realiser
architecture
continuer
droits
importance
rester
##au
##nce
90
cependant
disant
extremement
##8
11
facons
prochaine
recu
##ma
fort
souris
##iser
bureau
appelee
climatique
conception
entendre
marcher
organisation
production
telle
totalement
evidemment
machines
pensais
poser
soi
ayant
medecine
vieux
##4
##pe
extraordinaire
tas
moyens
##ls
##tre
boite
dur
croire
deviennent
doute
permettre
##la
pire
auparavant
complexe
litteralement
robot
uniquement
##2
decouvrir
genes
##ing
medias
utilisons
vraie
manger
terrain
##ments
joue
prenons
conditions
met
##be
activite
dehors
liberte
morceau
##sse
##teur
kilometres
apprentissage
chiffres
electricite
##ive
avion
laboratoire
route
suivante
##uses
beau
directement
lance
transformer
arbres
feu
revenir
tot
creation
ecran
genial
incroyablement
arrete
direction
repondre
anglais
huit
lesquelles
carbone
dedans
ecoles
70
connu
services
##ttes
peau
village
liste
auto
eleve
pauvrete
##ri
exterieur
intelligence
mur
belle
ciel
devait
possibilite
premieres
##as
affaires
as
sociale
soir
solaire
toi
etape
hopital
plantes
savais
##man
puissance
retour
robots
##6
##ien
augmente
vivons
adore
haute
materiaux
neurones
simples
actuellement
merveilleux
regardons
##ante
etudie
origine
progres
contexte
cout
effectivement
etres
parti
traiter
##vant
commun
courant
importantes
large
page
foret
sentiment
envoyer
professeur
test
##3
##ales
##tons
communautes
essayons
malgre
mourir
sein
##ille
bonheur
manque
morts
parlons
prennent
americain
commencons
longue
commencent
individus
sang
reseaux
reve
biologie
certainement
entrer
etoiles
pratique
presente
repondu
malheureusement
permis
proteger
efficace
familles
police
table
##ants
appareil
##1
##ees
##nant
500
allais
dix
eleves
langue
travaillent
interet
solutions
bebe
gagne
paix
viens
##en
concept
fonction
vecu
vivant
chanson
collegues
gouvernements
national
outil
proche
##des
##ront
opportunite
remarque
##ch
##rite
##sant
films
or
##5
##9
interessante
mode
##nts
clair
connaissance
es
suivant
fallait
pourrais
quelles
avance
cher
sauver
effets
potentiel
version
##ger
##rant
concevoir
km
necessaire
pensee
finir
marches
tombe
##ateur
desormais
faux
gaz
##aires
aurais
mondial
##ia
##tif
libre
masse
payer
poids
cartes
majorite
ordre
reduire
##iens
18
appelons
lien
bacteries
fabriquer
secondes
choisir
objectif
voler
##mes
amener
concerne
ouvert
portable
##lles
naturel
revenu
valeurs
forces
importants
pieces
neuf
position
pousser
programmes
discours
essentiellement
faible
##il
communication
dessous
entierement
membres
risques
##na
institutions
limites
numerique
sentir
trouvent
americaine
gagner
##rais
pied
the
tourner
vit
lois
moderne
prison
publique
reponses
##w
ecouter
grandi
medecin
atteint
clairement
faits
mene
##nel
##nne
##ques
blanc
bleu
campagne
chinois
moments
pouvions
pret
beaute
essaie
magnifique
numero
tourne
##ienne
##if
chef
peuple
armes
atmosphere
camera
court
milliard
##eur
plait
regardant
tirer
ton
touche
cherche
decisions
devraient
etrange
informatique
sauf
##el
##ll
appeler
conduit
eviter
garder
pieds
poisson
revenus
utilisation
##ck
chaine
nucleaire
president
attendre
devais
mise
personnel
marque
meilleures
religion
vent
voulu
batiments
bruit
chris
envers
lancer
vih
##ables
chacune
invente
lesquels
##istes
##tive
decouverte
evolue
genetique
hors
zero
##rer
faisaient
habitude
lune
œuvre
##iers
##raient
arrivent
decision
##ton
arbre
differences
perdre
quels
tomber
citoyens
consequences
controler
devenue
ferme
##ins
##v
genome
oceans
souviens
tenir
œil
##eme
memoire
observer
partage
voulaient
comprehension
facilement
##gue
##ide
abeilles
durable
plastique
sciences
seuls
##lant
aiment
puissant
##ps
conversation
poissons
chambre
compagnie
fonctionner
organismes
techniques
##ises
##ssent
affaire
enormes
limite
mission
prets
principe
##sons
avis
coeur
depart
immediatement
john
justice
lignes
mathematiques
naissance
oiseaux
permettent
vert
24
connaitre
consommation
noire
ouvrir
transforme
cle
final
passent
quartier
responsabilite
300
complexes
forte
musee
puissent
raconte
tache
##ration
##ut
16
agir
besoins
parfait
temperature
trou
videos
##da
bord
dimensions
profondement
reaction
tue
bois
carriere
champ
coin
contact
distance
ecoute
explique
explorer
londres
mesurer
observe
seraient
suivi
tableau
difficiles
envoye
ere
faisais
identite
ouais
parlent
puisque
technique
##ateurs
##ction
##ver
ah
creativite
medicament
mouvements
ouest
rappelle
##tation
armee
artiste
assurer
chercheurs
cotes
os
profond
second
sommet
sorti
##sent
devoir
entiere
pression
tuer
afghanistan
concu
molecules
choisi
croyez
garcon
implique
lieux
royaume
tiers
##ar
##ies
##nelle
article
artistes
auraient
considere
defis
formation
imagination
presenter
appel
arrivee
donnent
medecins
planetes
precis
##cte
maisons
naturelle
permettez
veritable
##ade
##ca
definition
minute
preuve
reconnaitre
serieux
##sion
##ures
agriculture
californie
electrique
espaces
riches
structures
##bles
##os
aviez
contenu
coute
critique
danse
perspective
rythme
verrez
##ute
2000
chien
connaissez
couleurs
details
fantastique
montrent
pensait
plaisir
secteur
14
envie
noirs
passait
regions
##nons
##rent
##ssant
contraire
lu
gene
lit
phenomene
##ses
achete
aient
augmentation
double
garde
pousse
regle
rire
sort
apporte
cerveaux
element
emotions
logique
rues
##der
##ro
disaient
passion
prochaines
protection
radio
augmenter
humaines
meres
pain
vol
##rd
##ves
adultes
alles
connait
etudiant
logiciel
materiel
micro
organisations
savait
##ct
##ible
##naient
appareils
apporter
banque
calcul
fonctionnent
methode
monte
produisent
riche
somme
utile
##ges
douleur
expression
particules
possibilites
analyse
dizaines
evenement
morceaux
septembre
sujets
ajouter
charge
decennies
diversite
gerer
influence
perte
porter
ressemblent
soyez
venait
aspect
chimiques
course
tests
##di
bateau
communiquer
erreur
former
##nait
##nte
##teurs
bouger
celebre
competences
complexite
david
deplacer
erreurs
fonds
nations
preuves
traite
verre
##isee
colere
facebook
hasard
insectes
retrouve
suppose
vis
##ile
##ines
menace
mille
surement
travaillons
unes
visite
##or
autrement
bizarre
cadre
concentrer
concernant
demandez
depend
mettez
secret
actuelle
asie
capacites
cuisine
emploi
enfance
grosse
niveaux
sexe
ancien
cafe
connaissons
heureusement
imagine
ingenieurs
rencontrer
tele
##gation
actions
alimentaire
dechets
montagne
nulle
occasion
operation
oxygene
sites
sons
voient
evident
existence
monter
moteur
##ard
attaque
auquel
complique
devenus
jambes
manieres
derniers
domaines
exposition
possede
quitte
rappeler
suffisamment
profonde
telephones
##rier
##sait
conduire
devriez
maman
pleine
bientot
decrire
dos
fallu
mortalite
proches
san
toucher
vendre
conflit
depression
differemment
evenements
experts
identifier
notion
presse
titre
##bilite
##cite
##ha
allaient
co2
couche
employes
etiez
journal
murs
prochain
responsable
riviere
servir
souches
tire
avancer
changent
parfaitement
presentation
sida
13
connais
debat
fou
graphique
japon
ta
##am
classique
connaissent
essais
forets
incroyables
obtenez
principalement
souvenez
souvenir
tissu
vaut
##gan
dirait
equilibre
ingenierie
normal
parlait
pont
remarquable
transformation
trouvez
usine
voulions
##ces
400
capital
emissions
formidable
frappe
lettres
statistiques
television
##gie
##son
devrais
dirais
entree
froid
passant
reelle
richesse
signaux
signe
surprise
termine
##ages
##ifs
chances
comprend
fournir
materiau
meurent
personnage
##at
flux
frere
mariage
pages
quant
similaire
uni
vide
##bre
##ules
emplois
inspire
labo
mauvaises
moindre
obtenu
sable
stade
venez
vouloir
apprend
courbe
dure
nationale
principes
regime
sombre
venue
##ley
17
al
climat
contient
decider
doigt
soin
tonnes
##vons
clients
creatures
cultures
davantage
microbes
passage
publie
reves
soutien
##ations
##lin
accident
appelait
auront
commerce
essayez
garcons
habitants
heros
notes
organes
##nee
anti
battre
bresil
fera
individu
nourrir
precisement
rentre
retourner
semblait
##saient
3d
aspects
comportements
danger
leve
merveilleuse
mettent
objectifs
representent
strategie
##quant
##ries
africains
aurons
consiste
dangereux
dr
essence
ferait
opportunites
paysage
texte
twitter
washington
##nd
##ng
150
cercle
considerer
efforts
fabrique
he
lutte
membre
rentrer
survivre
utilises
venus
victimes
##mment
##ou
connaissances
essentiel
galaxies
invite
liens
nomme
occuper
sociales
terres
bases
biologique
chiffre
conseil
economiques
existent
faim
irak
magie
noms
offre
pauvre
##ologie
activites
arrives
corruption
ecriture
fourmis
lettre
rendent
sequence
signal
utilisee
##tent
caracteristiques
clinique
duree
generalement
mange
parc
propose
sortie
tester
##lite
##nent
##ois
##ze
baisse
bebes
bouche
centres
decouvertes
enormement
lecon
mari
offrir
##bie
##cant
##naire
##rique
ajoute
chaleur
congres
debout
dirigeants
donnez
electronique
pouviez
semblent
style
##gne
##ni
##rt
##ulation
blanche
cardiaque
coupe
cycle
echec
enseignants
fasse
hier
ile
nouvel
photographie
populaire
prefere
retrouver
##riez
charbon
connexion
internationale
malade
participer
principal
puissante
##ry
##tifs
##tions
acte
bus
degres
desir
disais
doigts
epidemie
frontieres
tente
##ol
##tiques
civilisation
combat
constamment
cool
demain
effort
empecher
intelligents
lycee
maths
recevoir
singes
tels
venant
volonte
##li
##pes
ancienne
aurions
bande
convaincre
creent
equivalent
fenetre
fondamentalement
generations
interessantes
local
media
mettons
organisme
physiques
plante
tient
##bes
##ta
##uel
croient
desert
montagnes
nation
obtient
reference
##cule
##dre
##quer
connecte
etoile
investissement
lumieres
possibles
professeurs
sources
suffit
trouvons
##lement
apprennent
ayons
boulot
comprennent
esprits
jardin
pib
similaires
taches
traverse
unite
vote
##mant
##quons
##ture
camp
couts
determiner
disponibles
grippe
intelligent
lentement
mit
perception
phrase
proteines
ressembler
soutenir
vehicules
##land
##raux
avantage
chaud
efficaces
los
medical
passons
propriete
serieusement
survie
telles
trous
##lage
##rions
allee
anciens
appellent
dents
direct
fabrication
oublie
queue
rouges
##logie
adulte
aimons
eaux
lever
pensees
pourra
special
viande
##ides
##lation
allemagne
application
dejeuner
efficacite
enseignement
jaune
normale
pluie
principale
retourne
revient
usage
##graphie
##igne
##yer
centrale
disponible
essayant
gravite
joie
legerement
pile
pointe
soldats
vetements
##bo
##ires
##tude
amusant
auriez
decrit
fondamentale
infrastructure
kenya
lie
mentale
quitter
##ic
##ives
##ris
##ues
angleterre
attendez
facteurs
fondation
prises
ressentir
richard
sert
traverser
##per
arts
devaient
electriques
investir
mener
molecule
note
pensaient
responsables
suggere
theatre
##go
##he
##ice
##ome
bonjour
dirige
ecoutez
enseigner
immense
iran
portables
silence
vole
##iere
##illes
##taient
bill
central
comprends
continent
devions
einstein
generale
israel
liquide
locaux
melange
necessaires
premierement
reduit
transport
##die
angeles
cheveux
chute
composants
conflits
correctement
docteur
dynamique
entoure
exprimer
freres
gestion
instruments
maintenir
normalement
##ke
##ly
civile
etapes
morale
presence
times
toilettes
travaillant
utilisateurs
verte
vrais
##ans
##cher
##elle
canada
competition
essai
extraordinaires
industrielle
interaction
organise
parlez
prive
regardent
routes
utilisez
##ssement
actuel
ancetres
conversations
expose
galaxie
interets
largement
orient
parlant
prends
privee
schema
tandis
terrible
##ieme
##ium
35
accepte
accepter
cheval
connecter
deuxiemement
enleve
estime
journaux
leaders
necessite
nombres
peche
regard
sagesse
surpris
traitements
##ller
##vre
attaquer
biens
chat
consequent
dessin
mexique
occident
ouvre
personnelle
portee
ramener
reparer
resistance
##co
##mi
##nais
##one
chaussures
combinaison
echange
entends
extreme
frais
intitule
jouent
mesures
particuliere
reussir
technologique
tiens
vaste
##naires
##tait
collaboration
etranger
francais
historique
passes
soudain
terrorisme
tumeur
##00
##lait
##lons
##ors
agissait
aurez
bref
croyons
equipes
extrait
horrible
messages
quatrieme
reflechissez
ressemblait
vieille
##ches
##cs
##nage
detecter
elections
fete
forment
oeil
resolution
specifique
tissus
travaux
utilisees
##mie
aimer
apparemment
cesse
cliniques
comprenez
conferences
directeur
disparaitre
donnee
economies
emmener
finance
george
global
langues
neige
paludisme
personnages
publics
rassembler
retraite
reussite
serez
souvenirs
toit
##chant
##rai
##ui
##uler
75
aise
angle
auxquels
compare
depense
naturellement
pierre
quasiment
quiconque
rechauffement
sac
souhaite
sucre
sure
##aine
##gique
##ume
45
apparait
artificielle
bibliotheque
cache
deplace
designers
desole
enseigne
entraine
francisco
frontiere
magazine
publicite
siege
surprenant
vin
##sive
##vait
##ye
99
blancs
chimpanzes
compagnies
dessiner
dollar
drogue
entrepreneurs
esperons
foi
guerres
oeuvre
pacifique
rappelez
soie
triste
##ber
##iel
##lise
##ntes
##ste
1000
2008
active
budget
commencez
decennie
diminue
diplome
disparu
distribution
exploration
methodes
visages
##mique
##ms
##trice
affecte
annonce
bataille
beaux
defense
drole
eglise
engager
odeur
plans
pourcentage
vaccins
##ld
##rable
##rale
##tin
##vaient
appliquer
ayez
ballon
chefs
couches
croit
etablir
gout
hauteur
organiser
paye
pourrons
serre
voisins
##chons
##mons
##ueux
allant
apercu
australie
auteur
chirurgie
complet
compter
demandent
dispositif
enregistre
etonnant
leadership
midi
montrant
occupe
ours
ouverte
parole
puissions
souffrance
transition
visuel
voyager
##lan
##lo
##nique
##rice
entendez
ministre
nez
phase
rayons
reflexion
remplacer
terminer
transmettre
vas
##eurs
##tives
agees
big
charles
concepts
couverture
fonctionnement
instrument
intention
messieurs
nigeria
operations
parait
rendez
siecles
vehicule
velo
vivants
##by
##dite
##isees
##llement
##quait
##sions
##va
architectes
belles
contrairement
emission
hopitaux
inspiration
international
invisible
marin
medicaux
ouverture
parfaite
partis
prouver
provoque
relativement
roi
sinon
stress
via
##ga
##ivement
##lee
##lie
##ud
champs
cortex
creee
destruction
emmene
envoie
etendre
extraire
facteur
fascinant
foie
grave
inventer
mecanisme
nerveux
partenaires
youtube
##alite
##ssez
##tage
alimentation
bleue
consommateurs
diagnostic
engagement
excitant
explication
franchement
indique
invention
mecanique
metaphore
motifs
nasa
nuage
positif
precision
proprietes
respect
restaurant
sympa
telescope
travailleurs
##abilite
##ah
##isent
adapter
aliments
axe
causes
comprenons
depasse
heureuse
lendemain
lies
longues
modernes
repas
total
totale
##culaire
##line
##rateur
##tants
##tt
anderson
avantages
biais
conclusion
darwin
date
detruire
discussion
genere
globale
hotel
magasin
magique
pareil
performance
populations
troubles
voire
##ites
##mer
##nions
agents
aveugle
cinema
collective
encourager
equipement
fleurs
fonctions
hypothese
majeure
medicale
passee
poche
pratiques
recuperer
sport
utiles
##ds
##iles
##ka
##toire
##ulaire
applications
arme
attaques
chiens
chimique
energetique
harvard
ingenieur
institut
locale
poeme
poste
provient
sauve
savions
tradition
##lon
##ny
##rin
##ser
ame
aupres
basee
batterie
bulle
cible
cour
creons
egalite
faudrait
furent
integrer
interagir
modifier
recompense
representation
savaient
serons
sœur
volume
##cation
##cter
##eux
##th
aborder
amie
artistique
attraper
bouge
chimie
condition
correspond
empathie
feuilles
gps
heritage
paul
pollution
predire
quartiers
representer
sortent
suit
symptomes
vaccin
##ere
##ibles
##ica
##io
##ti
##tie
##uelle
accomplir
bouteille
britannique
complete
consequence
courage
degre
dinosaures
hiver
intelligente
james
metal
of
pilote
portes
reunion
revenons
sentiments
spectre
station
tes
##ate
##ssons
##voir
21
anniversaire
balle
compose
diner
feuille
fondamental
forcement
geant
jeter
musulmans
panneaux
personnellement
preparer
probabilite
reconnaissance
reproduire
restent
situations
union
##ad
##cieuse
##ix
##nez
##nie
##ore
##tante
##uer
600
circulation
dimension
fer
fiction
hydrogene
ondes
puissants
ramene
remettre
sensation
##dons
##et
##mite
##nance
arabe
attend
attirer
business
cameras
crime
fonde
france
ordinaire
oreilles
profit
surveillance
theme
venons
##cons
##isse
##matique
##onne
##uise
2010
250
attire
dame
fossiles
journaliste
lecons
morte
panneau
post
pre
profondeur
provenant
recoit
serais
sphere
venaient
##ci
##gene
##rit
##tais
##tal
algorithmes
analyser
apparaitre
chansons
chanter
citation
constitue
cru
dessins
donnant
drogues
genetiques
genie
honnete
interface
mondes
placer
precedent
procede
rare
selection
stupide
tenter
visible
##ification
##ot
aident
and
articles
centaine
chasse
exercice
faisions
graines
grandir
institution
iphone
jusque
mammiferes
oiseau
open
papa
peinture
poesie
reactions
refugies
russie
##ain
##cier
##rine
applique
auxquelles
bio
client
commercial
descendre
enlever
entend
inverse
magnifiques
mesdames
mobile
moral
piano
pratiquement
reserve
resume
revele
spectacle
##chait
##ial
##id
##oire
##rage
##tations
##vais
22
aimez
amelioration
ben
casse
claire
courir
courte
definir
depenser
evoluer
fous
frequence
inconnu
janvier
litterature
optimiste
pattes
plat
soyons
traditionnelle
trouverez
veritablement
vues
##ach
##iale
##isons
##ron
##utes
acceder
calculs
detail
expansion
honneur
noel
rassemble
satellite
seules
tendances
tort
transparence
##con
##do
##ibilite
##nge
##ologique
arrivera
atomes
cadeau
creatif
demontre
donnait
echantillons
engage
examiner
honte
inquiete
lecture
mystere
nee
nuages
polio
rares
remonte
rencontres
resolu
scanner
spatiale
terroristes
toile
verifier
##cre
##ers
##ney
##ole
##our
acier
architecte
bacterie
carburant
chaos
discuter
ecosysteme
ethique
immeuble
numeriques
permettant
personnalite
proteine
puce
quantites
sms
su
volant
##ime
##isant
##ssait
##ulent
assise
bouton
caractere
chicago
cles
connue
constate
democratique
difficulte
emotion
gamin
liberer
longueur
marketing
monsieur
probable
publiques
##ades
##cie
##lent
##let
##nelles
##niez
##no
##sa
2007
abandonne
absence
adolescents
basse
contribue
diriger
economistes
foule
installe
installer
intervention
michael
militaire
multiples
nes
obama
paris
pensions
rose
sent
senti
suivent
visuelle
##cer
##gi
##ieux
##ition
##j
##llage
##mo
19
23
apprenons
aventure
baleines
bretagne
cacher
carre
continuent
debarrasser
electroniques
explosion
faibles
foyer
fruits
iles
interessants
levez
malades
ombre
pakistan
politiciens
profondes
prototype
salles
secrets
##ote
##uite
agent
associe
automatiquement
capitalisme
city
concentre
creant
echoue
egypte
innovations
integre
japonais
merite
mises
nucleaires
orbite
rarement
trace
vague
vagues
##ctes
##tient
##vient
##xe
2009
association
biologiques
bombe
commune
credit
da
etendue
habitat
necessairement
pollen
reflechi
steve
street
supplementaires
voisin
##nde
##ographie
##ose
##sante
##vation
abandonner
algorithme
autisme
boston
combattre
copie
entrainer
interne
metre
microscope
observation
potentiellement
radicalement
soudainement
specifiques
tom
##are
##ba
##fer
##its
##ow
##veille
acteurs
agreable
attente
avancee
colonie
conclure
creature
dauphins
echantillon
equation
infrastructures
interactions
militaires
partagent
puissiez
quelconque
re
signes
studio
sœurs
tours
vacances
##antes
##duisant
##iller
##lir
##posant
##rables
##tile
ameliore
arrivait
autorite
considerons
construite
depenses
dessine
donnons
douce
fixe
illusion
jambe
moteurs
opinion
orchestre
paraitre
plage
prouve
race
retirer
sauter
sois
ultime
usines
voies
##ances
##atique
##fs
##las
##prime
##tee
alternative
apple
cardiaques
com
convaincu
densite
difficultes
elevee
energies
enregistrement
evidence
finit
inconnus
marins
options
pourront
prete
recoivent
religieux
repond
sentez
vieilles
vivaient
##gee
##lable
##mis
##net
##pique
##rry
##rus
##sance
##ude
africain
bang
calculer
capteurs
cents
circuits
cooperation
coups
departement
don
goutte
logiciels
mathematique
moelle
motivation
naturelles
quart
quotidien
scolaire
standard
superieur
tetes
thomas
unies
vieillissement
vraies
##lais
##nnes
##uit
accidents
ailes
altitude
amoureux
cable
champignons
choc
conscient
cordes
coree
declare
exploitation
gay
gratuitement
liee
oreille
pate
physiquement
positive
pourrez
rejoindre
religions
reputation
singe
surs
terrestre
trouvait
##cal
##est
##gle
##ki
##rez
##sez
##tien
##vions
1990
2005
alzheimer
antibiotiques
co
couper
determine
dignite
effrayant
elever
empeche
excite
financier
hey
juge
liees
minuscule
parcours
perd
prevu
puisqu
rapides
recente
reduction
situe
symbole
##cale
##can
##dent
##fie
##gon
##gre
##nement
##nir
##ree
##tement
##tine
##uche
acteur
ages
apprecier
benefices
boites
circuit
culturelle
curieux
eloigne
essayent
expert
froide
imagerie
indice
joueurs
laboratoires
maitrise
males
ordinaires
pole
prenant
protege
recul
remercie
rempli
transporter
transports
travaillait
universites
##car
##diction
##gence
##graphe
##iant
##icien
##ielle
##ifie
##int
##ker
##my
##nier
##pte
accelere
asseoir
collegue
content
croyances
deces
degats
diverses
encourage
generer
infantile
investissements
mouches
muscles
obesite
ouverts
printemps
proces
remonter
ressenti
ridicule
sachant
sentais
sentent
spatial
tombee
utilisateur
vallee
vingt
vivez
##ay
##dy
##nation
##ologues
amp
assembler
aveugles
chirurgien
curiosite
demonstration
financiere
fusion
indiens
menaces
metier
muscle
neanmoins
obtenons
option
pardon
participation
pensant
poursuivre
presents
retire
saison
sembler
sommeil
stanford
trafic
villages
##bres
##otique
##oue
##page
##rise
##venue
27
accessible
admettre
capture
colle
confrontes
construisent
critiques
developpent
developpes
environnements
examine
exception
fausse
feront
fleur
fortement
huile
irm
jeunesse
juin
laser
passez
portent
professionnels
quantique
rapports
salut
sauvages
scenario
technologiques
vivante
œuvres
##atrice
##chais
##den
##fication
##gos
##ignent
##itaire
##llon
##lu
##met
##neur
##ologue
##riser
##trait
##vo
anciennes
apparence
arrivez
assurance
attendent
cense
connexions
crucial
demandant
deplacent
enquete
entrent
exploiter
intelligentes
jouets
manhattan
obstacles
oublier
parlais
peurs
phrases
pires
ralentir
recit
revoir
salaire
secondaires
sensibles
simulation
souffle
statut
temoin
traces
##cent
##fere
##lis
##pa
##to
adresse
avancees
brevets
bruits
bureaux
comparer
conseils
demandais
ecologique
entrainement
fauteuil
interesses
islam
locales
maire
male
marchent
marques
moustiques
organe
plateforme
pm
remarquer
remarquez
reunir
suede
tapis
titres
##cente
##cient
##dation
##fe
##lier
##lue
##oux
##taire
##tu
##ulant
##vi
abri
administration
adopter
chaines
circonstances
classes
commentaires
compromis
emotionnelle
examen
financiers
folle
gamme
grille
grosses
ideal
identiques
in
lac
mecanismes
merveilleuses
mouche
paradis
profiter
refuse
sain
saisir
supporter
survecu
trajectoire
vente
victime
##cions
##euse
##ey
##ination
##lande
##liser
##nels
##op
##taux
##un
2004
2006
actif
attitude
automobile
baisser
boire
brise
chaise
coca
concours
connectes
debute
demarre
docteurs
elephant
esperance
etrangers
evaluer
gouvernance
initiative
kilos
lunettes
marie
naturels
occidentale
parent
philosophie
pic
plate
poitrine
prepare
professionnel
quotidienne
racines
sensible
surmonter
travaillais
urbain
vouliez
##ison
##issent
##pt
##riques
##ronique
##sement
##trique
##vants
##venu
##vis
65
afro
animation
arret
arrivons
banques
categorie
chocolat
corail
crees
defaut
deroule
dh
diabete
diminuer
ennemi
enregistrer
etranges
europeenne
exprime
fenetres
higgs
interpretation
kg
lait
mets
mondialisation
montee
multi
normes
precise
productivite
reconstruire
repose
respirer
sacre
saute
secteurs
simplicite
solide
transmission
urgence
vendu
virtuel
œufs
##ian
##mblaient
##ul
##vrons
aeroport
agence
agriculteurs
antarctique
apparaissent
apparu
connaissais
continuons
crane
enceinte
etend
fibres
front
ghana
infection
installations
magnetique
orange
performances
permanence
potable
principales
psychologie
rejoint
sourire
unites
usa
variete
virtuelle
##ane
##atif
##dant
##ication
##lique
##omie
##ours
##quent
##rites
##sais
##ssais
##ville
adopte
allions
americaines
argument
attrape
autrefois
biologistes
caracteristique
collection
createurs
dan
designer
empreinte
ignorance
mangent
marine
metro
meurt
minuscules
miroir
oppose
origines
poulet
suffisant
therapie
##eau
##genes
##gnait
##gramme
##hes
##ip
##rative
##uant
##uis
##viennent
accent
actifs
appartement
biodiversite
boucle
branche
brule
bush
chers
consomme
construisons
diable
divers
ecart
economiser
empire
epargne
essaient
existait
interesser
invisibles
legumes
motif
nager
principaux
pyramide
quete
remplir
retard
reunions
reveler
soigner
spectaculaire
suisse
teste
trajet
typique
voter
wikipedia
##ame
##duit
##ete
##imetre
##men
##mine
##nces
##pant
##phone
##ral
##tache
##usement
##ya
700
800
acquis
autonome
constante
creative
durables
echapper
emerge
explose
formule
globe
infini
inquieter
interessent
ira
lutter
martin
match
mentionne
nu
obscurite
primaire
proprietaire
reveille
rio
rwanda
sculpture
serai
theories
voyages
voyait
##culaires
##fier
##llons
##tres
##trons
##uve
##vra
abondance
bulles
clavier
defendre
demandait
devenues
echecs
etages
fier
haiti
herbe
identifie
laissons
majeur
mettant
moleculaire
negatif
nobel
offert
plafond
port
qualites
repete
robert
sauvage
signifiait
solaires
star
synthese
tenu
tribus
vache
vienne
##cait
##ette
##irme
##niques
##pait
##rf
##uge
##viez
africaine
aie
algues
carres
college
confort
diapositive
diplomes
disposition
enthousiasme
extra
faciles
faudra
fermes
forts
guerir
hypotheses
inspirer
investisseurs
joueur
kilometre
microsoft
neurone
octobre
oxford
partageons
partenaire
pause
percevoir
plier
possedent
poussiere
privilege
programmation
proposition
reagir
regler
variations
vus
world
##cateur
##cus
##gnon
##her
##ky
##mon
##ndre
##ographique
##pere
##phonie
##uir
120
32
apprecie
attentes
categories
cerebrale
chapitre
coins
commande
concert
creatifs
declaration
demarrer
dialogue
discussions
dormir
eliminer
esclavage
exister
extinction
hautement
indien
ingredients
italie
joli
journalistes
miracle
musiciens
ong
optique
oubliez
paire
paradigme
parvenir
peres
pertes
peuples
piste
places
reine
reprendre
robotique
soldat
stable
symboles
terriblement
traditionnelles
urbaine
verts
volontaire
voyant
##ac
##bolique
##cations
##crit
##icite
##phe
##reux
##sie
##tra
##yant
2011
21eme
adam
aiguille
araignee
audience
bloc
camion
chaude
cherchons
chere
couple
devienne
devinez
ecrivain
efficacement
expressions
fortes
graves
hauts
immunitaire
implications
instructions
intellectuelle
oblige
oncle
parcourir
participants
personnelles
pierres
rayon
reconnu
rendus
ressource
sonne
surfaces
tableaux
texas
totalite
tremblement
troisiemement
##ang
##chaient
##cois
##dique
##iaux
##ils
##issement
##lees
##liez
##mar
##oule
attache
autoroute
blague
boule
bourse
chemins
cite
collectif
comparaison
financement
fondamentales
football
fournit
gamins
golf
impliquer
impots
installation
jouet
laissent
leger
matieres
observons
paquet
participe
passerait
periodes
prediction
proposer
relie
riz
salon
souffre
strategies
superbe
superieure
talents
tension
tiennent
uniques
##aise
##and
##ciens
##cts
##cy
##nisme
##pie
##right
##ssaient
##tch
1960
accelerer
affiche
archives
audio
bf
bible
cables
concentration
conscients
corde
couteux
cultiver
ecrans
election
envoient
essayais
fascine
figure
fosse
gagnent
imprimer
independance
informatiques
jim
libere
ministere
modifie
parking
poussent
programmer
relever
rendue
retenir
roues
servent
souleve
traditionnel
tragedie
vivait
##caire
##cle
##ens
##lions
##lore
##mination
##mpe
##ouche
##ouse
##pot
##rce
##siez
##stre
##ualite
##uisez
##utant
##uyant
2001
95
aimais
aimait
appels
arctique
atlantique
biere
collision
communications
conduite
declin
descend
description
dictionnaire
documents
ennuyeux
femelle
fourmi
frank
fur
leader
maximum
onu
paysages
pdg
peindre
pese
prenait
rendant
reserves
resumer
secondaire
separe
servi
souffrent
supplementaire
symetrie
tournant
venais
verrons
##bert
##iment
##issant
##ivite
##los
##ouer
##tan
##urale
1980
26
aides
cellulaire
centimetres
cercles
cereales
chanceux
chats
cinquieme
club
considerez
constater
contrat
courbes
dense
developpee
dieux
directions
drones
effectuer
entrepreneur
esperer
genoux
guide
ignorer
inevitable
infirmieres
mark
mec
paires
prevoir
progressivement
publier
recours
requins
reunis
revue
roman
seuil
speciaux
tentative
utilisaient
vides
##cine
##ctions
##cu
##gistes
##mblant
##mistes
##oir
##ord
##ple
##ppe
##rah
##see
##vise
20eme
actes
adapte
apprise
assistance
attendais
auteurs
baleine
barriere
blog
bouts
calcule
cerebral
cherchez
couvert
detruit
disque
djihad
effondrement
enseignant
epaule
essentielle
etonnamment
excellent
financer
future
geniale
internationales
intuition
inutile
maternelle
methane
pairs
photographe
prevenir
produite
rat
recent
regardais
regardait
relier
sortez
universitaire
vieil
##cis
##crivent
##dait
##eek
##gent
##gnons
##han
##ience
##ill
##ja
##logues
##ologiques
##osse
##otes
##position
##prenait
##ras
##sif
##sseurs
##tenu
##ty
##uille
##vie
##vite
2003
allumer
alternatives
arc
assure
bain
bandes
bel
brillant
cambridge
conducteur
conservation
contiennent
couvrir
croyance
dioxyde
ecosystemes
espagne
fantastiques
faveur
gere
golfe
gras
gris
hall
impliques
introduit
libres
navire
passionne
pouvoirs
promouvoir
roulant
sacs
saint
secours
traduire
travaillaient
tues
universel
vaisseaux
##ace
##ception
##cieux
##igner
##matiques
##mets
##mise
##ndent
##nsion
##rde
##table
##taires
##tor
##vin
##vres
1950
affronter
aimerions
amuser
banlieue
bateaux
bg
blocs
calme
capturer
comptes
congo
contribuer
courante
decouvre
desastre
envisager
epouse
ethiopie
exponentielle
extremes
impressionnant
jouant
king
millier
noires
noyau
optimisme
original
perdue
physiciens
presentes
promesse
proximite
record
remarquables
saviez
souhaitez
specialement
squelette
stop
talent
tournee
traditions
tube
valley
visiter
voudrait
##cure
##nale
##oma
##quee
##tures
##uter
##yait
atteints
attentivement
beton
camps
catastrophe
cherchent
cm
colline
conserver
coraux
croyait
danser
destination
diront
dise
echanges
estimation
etrangere
ferai
fit
life
mai
massive
nettoyer
organique
permettra
proviennent
rapporte
rb
regulierement
repondent
restait
rome
satellites
signification
soiree
suicide
travaillez
##ains
##ande
##dra
##duisons
##era
##gaux
##gues
##indre
##laire
##logique
##nal
##ouille
##ptons
##rainte
##rn
##ster
##stes
##uait
##urait
##ural
##vision
##yez
alimentaires
allemand
allume
apparition
attends
automatique
camions
colonne
comporte
composition
concue
concus
connus
crimes
deviner
diapo
disparaissent
divise
doctorat
drapeau
ecris
exact
hackers
horizon
immeubles
individuel
intense
matrice
mobiles
mythe
net
nutriments
ouganda
passera
pomme
pommes
remercier
russes
sage
specialistes
suivantes
tombent
vendredi
ventre
voyais
wall
##ats
##berg
##dat
##dt
##giste
##git
##lah
##logue
##lot
##nees
##niste
##rds
##sme
##trant
##uellement
##urons
##verse
2050
adorent
ampleur
atelier
augmentent
balles
bob
chercheur
collecte
commencait
compliquee
connaissait
createur
croyais
destin
detection
dette
effectue
entropie
fermiers
frapper
grandeur
gratuit
humanitaire
imaginons
inegalites
interagissent
jete
laver
mensonge
mondiaux
nid
normaux
notamment
outre
parlaient
perdez
personnels
pouvant
provoquer
reproduction
ressens
restes
section
separation
separer
silencieux
telecharger
voudriez
##ates
##belle
##bet
##coit
##ervateur
##gration
##gs
##hi
##icaux
##ieres
##ilite
##iner
##mait
##minant
##ndance
##osite
##pal
##pin
##plie
##rement
##seur
##sifs
##sses
##sseur
##technologie
##titution
28
assemblage
avocat
canal
commentaire
comptent
contraintes
creez
demandons
depasser
dependance
eclairage
eloigner
eventail
explore
familier
finale
fonctionnait
ford
foyers
grandit
laissant
larmes
mi
mienne
obstacle
onde
perdent
perspectives
piege
pingouins
plaque
pleurer
poumons
precieux
puits
quasi
radicale
recompenses
restee
rivieres
sale
subi
subir
substance
surveiller
terrestres
trouble
tuberculose
tumeurs
utilisait
victoire
##ack
##amine
##ative
##cales
##cieuses
##dge
##els
##fle
##giques
##gure
##ignons
##ling
##miques
##oo
##pee
##pression
##rir
##rne
##st
##uctive
##vage
##venir
##vrant
abeille
agissent
analogie
appeles
blanches
caracteres
commerciale
commerciaux
connectivite
continents
courants
deviez
discipline
distinguer
douzaine
ecologie
etage
eteindre
ferais
fevrier
floride
genocide
habitues
lineaire
marchait
mobilite
monnaie
moore
nage
nourrit
observez
opposition
peter
poete
pourcent
preferes
priorite
prosperite
pure
recifs
recolter
ressent
schemas
serions
significative
stabilite
syndrome
tasse
territoire
tunnel
versions
volent
vulnerables
##aille
##ards
##bay
##don
##elles
##fait
##iler
##isait
##itaires
##landais
##sins
##ssif
##traction
##tuelle
apprenez
attendant
barre
bombes
brevet
cage
center
colonies
controlent
courageux
demandes
discute
echanger
educatif
electrodes
fassent
fibre
gates
glamour
gore
grandissant
grandissent
habitudes
hollywood
industriel
jugement
manipuler
manuel
mince
mines
nommee
ooh
partant
pot
prives
reflechissons
remarquerez
rendait
revanche
salaires
saturne
seche
sieges
sondage
sonore
suivez
taper
terroriste
urgences
visualiser
##ager
##citer
##cro
##cture
##ginaire
##guer
##iciens
##laient
##lture
##mme
##nard
##onner
##ph
##phere
##pliquant
##uage
##vasion
##vent
##wa
amateurs
appuyer
arretez
chromosome
citer
couloir
creuser
criminels
crises
cuir
culturel
demie
desesperement
donnes
eut
fassiez
feux
gigantesque
graphiques
habituellement
haine
immenses
inegalite
internationaux
isole
joindre
juridique
magasins
maitre
meteo
norme
olympiques
phenomenes
puces
radical
realisation
recette
reelles
remede
repenser
requin
ressort
sanguins
sexuelle
solides
speciale
support
thon
##ald
##ast
##bc
##bjective
##bs
##ceau
##ctus
##dale
##ed
##fiant
##ical
##ks
##lins
##ottes
##outh
##pons
##pris
##psie
##q
##quants
##rain
##rene
##urant
apparue
apportent
batteries
centrales
chair
chante
chasseurs
combiner
communs
constructions
decharge
declenche
desespoir
diagramme
directe
diviser
eduquer
elephants
encre
ennemis
eric
escalier
etabli
etiquette
etonnante
europeens
fac
feriez
fermer
fondamentaux
for
gestes
grottes
habitant
homo
imiter
imprimante
influencer
interieure
jesus
jolie
lancement
limitee
malheureux
mental
mondiales
nerfs
norvege
opera
origami
ouvrez
parkinson
parlement
plastiques
poignee
posee
proportion
puissantes
rechercher
recolte
respiration
rouler
sensibilite
sequences
souhait
traduit
vapeur
variation
volontaires
##cants
##ceptable
##euses
##ick
##mm
##ndront
##ndu
##perer
##prendre
##quite
##rateurs
##ratif
##ride
##scence
##sser
##tts
##uce
##uisait
##xuel
##za
2012
activer
actuels
adolescent
alimente
avocats
brievement
capitale
chauves
combine
composes
consommer
coran
costume
decembre
demontrer
derek
diffusion
dingue
emotionnel
entrez
essayait
evidente
filmer
fondations
gardez
geants
genetiquement
glacier
habite
harmonie
hautes
illustrer
inclut
individuelle
innover
insecte
insuline
latine
lent
lourd
occidental
oeuvres
passees
peintures
rapproche
ressentent
rever
score
souligner
supposons
systematiquement
tribu
trouvee
vaches
violents
##active
##ctees
##duire
##ente
##iennes
##llules
##mate
##miner
##mmage
##oom
##piration
##pter
##raction
##ran
##risation
##ther
##tir
##tration
##trices
##ua
##uaire
##vee
##verser
##vine
##vront
associes
autonomes
battu
benefice
bizarres
blesse
bleus
candidats
celebres
civils
construits
contribution
coton
couteau
deforestation
dispositifs
evaluation
extension
fan
faute
femelles
fiable
finissent
garage
guider
identique
integration
intimite
jetons
lampe
malaria
narrateur
offrent
opinions
planter
poumon
predictions
predit
prejuges
prostate
realisee
reprises
reviens
significatif
silicon
sovietique
specialiste
suggerer
susceptibles
temperatures
tournent
toutefois
trompe
trouvais
##40
##cage
##celle
##ciation
##ctive
##culture
##gin
##iales
##ielles
##ignement
##king
##lt
##mission
##oint
##omique
##once
##osses
##pais
##parons
##port
##raine
##raire
##ring
##tere
##tus
##ura
##usse
##van
##wn
33
accessibles
accompli
acquerir
agences
aidez
ampoule
approcher
baton
blogs
branches
ceinture
certes
chili
cibles
concepteurs
concurrence
consommateur
defini
descendu
devenez
devoirs
dirigeant
dossier
durs
engin
exploser
famine
filme
fondee
fromage
gandhi
grotte
high
illustre
incertitude
infections
intensite
investi
jane
johnson
juifs
kevin
luxe
mathematiciens
mortes
ms
narration
ocytocine
ouvertes
parallele
parcs
partagee
peint
physicien
pique
positifs
preparation
prisons
realiste
remis
ressemblerait
restaurants
reviennent
saine
semblable
sexuels
sexy
soeur
supreme
toits
trains
ultra
universelle
vaisseau
##bine
##cateurs
##cites
##dam
##ducteur
##gissons
##ifier
##imiser
##ity
##nable
##porter
##tez
##truisant
##uts
##venus
##vitation
3000
85
aleatoire
analyses
autorise
brillants
canaux
cancers
changeons
chinoise
collecter
connues
cou
coule
creees
croitre
devint
diametre
diraient
emerger
employer
environnementaux
evoque
examens
experimenter
fausses
formidables
grimper
historiques
humour
individuels
instantanement
intervenir
lointain
minimum
nelson
observations
parcouru
park
pleure
plonge
poemes
pompe
preferee
preserver
privees
proprietaires
raisonnable
reacteur
reels
reflete
religieuses
sec
semblables
telescopes
tempete
tend
terrains
tim
toxiques
tsunami
vols
##ana
##cede
##cence
##chon
##clus
##cue
##eu
##ff
##gant
##inons
##istait
##istant
##longe
##mettre
##mpose
##mure
##oires
##onnees
##plante
##quiert
##ram
##rees
##rium
##stique
##sure
##tale
##tiennent
##tudes
##uds
##ulaires
##visions
##wood
1970
2002
2015
5000
accompagne
agricoles
aille
anglaise
arabes
attendons
autorites
billet
brut
casque
chant
cherchant
choisissent
correspondent
dangereuses
delhi
detecteur
dimanche
disney
divertissement
domestique
eclate
economiste
ed
enveloppe
excellente
expertise
exposes
extremite
fiers
fierte
filtre
fine
ignore
indices
industries
instants
juges
larges
lucratif
obtiennent
orientation
papiers
paradoxe
partenariat
particuliers
pleinement
portant
portrait
posent
prisonniers
professionnelle
prototypes
recepteur
revolutionnaire
sache
scolaires
separes
shanghai
supermarche
terribles
tragique
tranquille
trouves
vend
##30
##alement
##bee
##bou
##cevez
##cif
##cole
##crates
##dage
##este
##fure
##idite
##inte
##lade
##lash
##loir
##manda
##manie
##mposer
##nda
##obilier
##ood
##ota
##ppant
##rouille
##site
##tivite
##ureuse
##xualite
##yaux
##yions
19eme
29
adoption
agricole
ak
alcool
appartements
appartient
arretent
bat
ble
bond
bouteilles
brian
briser
canopee
chapeau
chimpanze
clinton
comete
considerable
contente
correct
coucher
criteres
dilemme
dirai
disparait
dispose
echelles
egale
emergence
engages
esthetique
exacte
fbi
forcer
fruit
handicap
horribles
inviter
invites
librement
metaux
mk
moustiquaires
musicale
observant
okay
pensiez
permission
plonger
preferent
progresser
pub
reagissent
regret
remplace
rituels
sortis
tenait
textes
traduction
traitent
van
##cee
##ctee
##duisent
##esse
##gh
##ignes
##itude
##ko
##lants
##lisation
##llant
##mmages
##ndant
##niers
##porte
##prehensible
##sulte
##tel
##titude
##ttre
##zz
ajoutez
baseball
berlin
billets
caroline
chevaux
chirurgiens
citoyen
classiques
conseiller
coupable
danseurs
definit
deplacement
diagnostique
doux
effondre
email
emporte
entrain
excites
expedition
fournissent
fragile
fragments
gentil
ii
implication
incendie
indiquer
insiste
introduire
island
juillet
legere
majeures
nuits
ouah
parie
pleins
portait
precoce
profits
prothese
rappele
rats
reussissent
roles
sols
stupides
traditionnels
traites
transparent
tromper
trouvaient
viendra
vingtaine
##abore
##anie
##ano
##ansas
##asse
##charge
##clu
##dit
##ements
##ffe
##ficie
##fort
##fus
##gres
##ho
##ieuse
##ignant
##lair
##lamer
##lone
##miste
##nat
##neaux
##niere
##ning
##oles
##ook
##ox
##resse
##rgent
##rre
##sh
##tuel
##tuer
##uches
##utation
##vale
##vane
##way
abus
adolescence
affichage
applaudissement
approches
argentine
assemble
attendait
aurai
autonomie
bar
barrieres
beneficier
blessures
bruler
commandes
commenca
communiquent
constitution
cycles
debuts
demenage
demographique
deteste
durabilite
estimer
eteint
excuse
federal
financieres
four
genres
grains
helicoptere
independant
individuelles
infirmiere
interactif
liberaux
licence
longs
manquer
merde
meritent
mutuellement
naitre
occidentaux
patron
pente
planification
populaires
precedente
prevention
procedure
protheses
radios
rang
ray
rencontrent
rendement
rends
repeter
resister
robe
roue
scott
singapour
smith
stasi
stupefiant
transforment
traversent
venues
visuels
##bi
##chi
##cien
##crivait
##crivez
##din
##illant
##issait
##istance
##llent
##mentation
##more
##non
##ogue
##onnes
##pice
##po
##prenant
##raser
##uck
##uels
##ulier
##und
##uons
##uste
##ven
##version
##voyons
2020
absolue
activistes
airs
amitie
andrew
artificiel
assiste
asteroide
atomique
avril
bangladesh
benjamin
betail
bete
blessure
brillante
calories
celebrer
cerebrales
changeant
coince
comparez
constituent
continuellement
cube
cuisiner
culturelles
dangereuse
deviendra
diriez
doucement
douloureux
drone
earth
echappe
emplacement
employe
emporter
esclaves
esperant
ferons
fins
flexible
fortune
fourni
fraction
fumee
fusee
gabby
gagnant
incapable
inspires
interdit
justement
lions
logement
mammographie
mine
motive
panique
parasites
permettrait
pirates
plateau
ponts
positions
prenaient
presentent
prince
realisent
reformes
repandre
repandu
roche
saut
session
sexes
sombres
sonde
soumis
soutient
stocker
syrie
tables
thons
toxique
transformee
up
usees
visualisation
voyaient
william
##aison
##ak
##ary
##ase
##atiques
##bienne
##blematique
##cit
##crate
##dication
##dies
##dis
##gir
##grants
##hique
##irs
##issons
##ith
##logiques
##mation
##misme
##neurs
##nistes
##omalie
##omes
##onie
##ordre
##pse
##ptique
##reve
##rey
##rial
##rte
##sants
##sine
##sque
##tiens
##viens
##vrait
1998
55
acoustique
adaptation
amazon
anxiete
aptitude
arguments
authentique
automne
battent
bleues
causer
changez
clip
cognitive
commencant
conducteurs
construites
controles
correlation
decouvrons
diarrhee
discrimination
distances
dopamine
dose
duquel
ecologiques
electrons
elite
entendons
entourent
epiniere
exige
exterieure
fabuleux
format
geometrie
guerison
hectares
honnetement
idiot
indienne
intentions
lave
lego
liberation
mail
mangeons
manifestations
mediatique
mensonges
mentionner
metabolisme
modes
naviguer
nsa
obsede
passions
plaques
plongee
poches
poils
posez
positives
recommencer
reflechit
retours
sculptures
serieuse
sexuelles
substances
supprimer
sw
talibans
tech
tenais
terminee
thermique
titan
tony
touches
transporte
tribunal
troupes
tubes
vents
voile
wow
##aida
##bration
##cho
##cules
##ele
##formant
##gions
##ina
##liques
##low
##lus
##ndra
##ots
##ouilles
##quaient
##rices
##rifie
##roie
##rouiller
##sage
##toires
##tue
##uba
##uee
##ution
##vers
##vienne
##xion
36
42
accueil
achetez
agisse
aimant
appelees
arretes
baie
boue
capteur
choisis
cliquer
cochons
confronte
cooperer
corriger
couvre
decoupe
document
domestiques
durer
echouer
eclaire
ecrite
envoyez
epreuve
equations
essentiels
familial
fardeau
feraient
fleche
futures
futurs
geste
groenland
hein
horloge
initiale
injuste
interprete
jouait
jupiter
longevite
mechants
mentir
meubles
mont
neurosciences
nick
noter
novembre
pekin
permanente
portraits
preservation
producteurs
projection
publication
raisonnement
reforme
releve
retrouvent
rock
semi
souffrir
soutenu
st
tendre
tombes
torture
us
variole
##ader
##atale
##biliser
##card
##crire
##ctivite
##dia
##dote
##faction
##grade
##har
##iaire
##im
##istique
##kins
##larite
##mateur
##nds
##obe
##obi
##parant
##phones
##prise
##quette
##rete
##riers
##rissent
##rnite
##rrant
##so
##ssifs
##tain
##uc
##uf
##une
##urer
##vez
##vole
##yaient
alpha
annoncer
approvisionnement
appuie
argile
ascenseur
attendu
atterrir
aube
avancons
baby
barres
bords
briques
britanniques
cartographie
civique
climatiques
colonnes
combustible
comedie
competence
conservateurs
conviction
curieuse
degout
devenait
dira
disparition
division
documentaire
doubler
entites
etendu
euh
evoluent
familiers
festival
filet
grain
grece
greffe
ha
humilite
imprime
independante
inferieur
inferieure
intensifs
issue
jh
logo
mandela
marge
menee
milieux
naissent
opere
passaient
penche
planifier
poster
processeur
profondeurs
prononce
quoique
ralenti
rate
realites
recreer
recueillir
refaire
relache
reponds
retine
revelation
seriez
shirt
souffert
statistique
synthetique
tanzanie
tenant
transmis
traversee
tv
vastes
velos
vertes
vivantes
##activite
##air
##bits
##bm
##bourg
##bris
##ccupation
##cides
##ciemment
##cience
##eaux
##ents
##eres
##gnes
##hen
##ieuses
##illage
##inaire
##irmation
##ivait
##lerance
##lets
##ligne
##mat
##minalite
##nages
##nisation
##nn
##onnee
##phonique
##primes
##ption
##ptiques
##pulsion
##riction
##rins
##section
##siste
##ss
##su
##tiles
##tro
##ulateur
2030
20e
aborde
aile
allure
amazonie
bruno
censes
centimes
chaises
combler
comportent
cri
crispr
dauphin
decident
dinosaure
douzaines
dynamiques
egoiste
el
elu
emails
embrasser
emet
episode
equipements
etonnantes
etudions
excitation
existaient
feminin
finances
foot
grise
ia
impulsion
indonesie
informe
interview
islamique
jalousie
limiter
majeurs
manuels
medicales
montant
mortel
nouveaute
org
penis
planetaire
pouce
poursuite
promis
psychologique
rapprocher
reduite
reparation
respecter
roches
romantique
sanguin
shakespeare
signature
soigneusement
sortant
traits
tronc
universitaires
utilite
vietnam
##athan
##atives
##brer
##chie
##cks
##cluant
##dee
##dible
##ence
##flation
##forme
##fusion
##gees
##ght
##gment
##grante
##houette
##icides
##ilee
##ivons
##lisser
##mple
##nition
##olaires
##onyme
##otation
##pent
##pi
##pulse
##quis
##ranchir
##rence
##riel
##ructeur
##tements
##tente
##tins
##uillage
##uisson
##umer
##val
##well
##yons
absolu
actuelles
album
aluminium
aout
appropriee
associations
astronomes
atteinte
brown
cachee
campagnes
chambres
champignon
charlie
choisissez
civilisations
cognitives
commencement
comte
considerent
cruciale
democraties
depensent
determination
donnerait
due
electeurs
eloignes
em
embauche
entrepris
entres
explications
extraits
feministe
fixer
fondre
hausse
historiquement
hong
inconnue
infectes
inhabituel
interrupteur
inventions
jean
jeff
jones
legal
li
man
manifeste
marchant
mary
mechant
membrane
millenaires
moustique
nationales
nationaux
normales
paie
panne
parasite
pathogenes
pleines
policiers
progression
publiee
pur
rayonnement
renouvelables
responsabilites
restez
rotation
roule
satisfaire
scenes
serveur
to
tuees
vendent
verifie
verites
violente
visions
watson
##13
##antir
##bales
##cidence
##coller
##cteur
##ctile
##cton
##cute
##ession
##ex
##ferme
##gies
##gnaient
##gnais
##iaires
##ias
##irent
##isateurs
##lomb
##mber
##mee
##mont
##nellement
##olie
##pace
##peres
##phoniques
##prenais
##prouve
##ptation
##rairie
##ren
##risme
##smique
##uisme
##urie
##ury
##vantes
##viation
##vit
##voler
accroche
acide
aerienne
affectent
aimaient
apollo
aptitudes
arrivais
arrivant
audition
autoroutes
batir
biologiste
bougent
brooklyn
brute
capitaine
chimiotherapie
chomage
clarte
cola
commencaient
connections
consensus
continuez
cosmos
crier
croquis
demarche
democratiques
dependent
depensons
dessinee
diffuser
diminution
directeurs
disciplines
distinction
elevees
embouteillages
entendent
exceptions
fascinante
fuite
gentillesse
gloire
graisse
hemisphere
iceberg
integree
interfaces
interviewer
journalisme
joyeux
lecteurs
levres
lg
lincoln
litres
mangez
maree
mathematicien
menent
mike
millenaire
miroirs
moleculaires
navigation
newton
operer
oublions
ouvriers
paroles
partent
passionnant
payes
perdons
pitie
poignet
politiquement
prendra
preoccupe
preservatifs
priorites
radiations
reacteurs
reconnait
reinventer
renforcer
rentable
representant
republique
reside
restant
retablir
rurales
seattle
sel
seringue
show
specifiquement
tape
themes
time
tropicale
tuent
uniforme
vendeur
violent
visibles
##99
##aune
##bulaire
##caux
##cevons
##cution
##demique
##drons
##ecteur
##iais
##iot
##jection
##lables
##mants
##naux
##ndi
##nges
##ourner
##passe
##pense
##porelle
##portait
##prenne
##quin
##rade
##reur
##riche
##rive
##ropie
##sit
##tice
##tite
##traient
##ttent
##uais
##uation
##uration
##vante
##vateurs
##vaut
##venaient
##venant
##verti
##vier
##voyant
##vure
##yiez
##yme
130
1900
2014
accords
affecter
agrandir
ambitieux
amies
ampoules
arriva
asteroides
atteignent
avatar
bassin
benefique
bidonville
campus
cascade
censure
cinquante
clic
collaborer
combinaisons
comporter
concentres
concues
condamne
confortable
conserve
contenir
coutent
creations
cyber
data
debit
depit
derange
destine
devenons
domicile
dons
economiquement
egards
egyptiens
elimine
emprunter
engendre
equateur
etrangeres
etudiante
fabriques
file
fluide
gateau
genomes
geographic
hormones
humidite
icone
improbable
indiquent
instinct
inter
interpreter
intrinsequement
ipod
jette
job
joe
lecteur
lentilles
leonard
manifestement
merveilles
miles
mme
mysterieux
negociations
negocier
nul
occasions
oublierai
pandemie
parlions
participent
patiente
permettait
planche
pompiers
porc
predateur
predateurs
prenne
previsible
producteur
profil
progresse
psychologues
racine
realisateur
recits
reconstruction
recupere
recyclage
regimes
remplie
repousser
retournee
reussit
serviette
simuler
stockage
stylo
therapies
touchent
tranche
traumatisme
trente
typiquement
variables
visuelles
##20
##ander
##barque
##bilisation
##blement
##blons
##bons
##cain
##cans
##ciper
##cret
##cteurs
##dront
##fert
##figuration
##hua
##inant
##ish
##istantes
##itif
##nalite
##noncer
##odo
##olaire
##orium
##oss
##ouons
##phie
##pler
##rairies
##ret
##roite
##ruption
##teres
##tinent
##uan
##uira
##ulee
##urne
##ymes
3eme
900
abordable
absurde
accorde
achat
actives
afficher
aimee
amas
ambition
ames
amusante
anime
antennes
arriverait
bambou
basant
basees
bell
biosphere
boutons
cachees
canyon
chemise
chretiens
circuler
collaborateurs
communautaire
connectee
consciente
considerablement
convertir
debats
delicieux
detecte
detroit
diffuse
ecrits
egal
espagnol
essor
etroitement
fiche
flotte
frequences
genou
grossesse
hallucinations
hommage
humeur
icones
illegal
inattendu
inattendues
inclure
independamment
isoler
jardins
juger
led
logistique
lt
manifestation
marron
mentales
mettait
mutations
organiques
parametres
philosophe
pop
prie
promotion
reagit
recommence
remedier
renouvelable
retournons
retrouvee
sacree
seti
solitaire
soupe
stations
stephen
superieures
survivent
tante
tenez
texture
tiree
urbaines
vertical
veterans
vierge
vivais
voudraient
##actives
##angs
##bai
##cir
##coivent
##crivant
##erte
##ginaux
##gner
##iaient
##ifice
##ignez
##illis
##lacons
##leuve
##lises
##ocation
##oues
##pare
##pines
##piques
##pus
##quie
##quise
##raint
##ray
##rk
##robation
##rose
##rrasse
##rtir
##rveuse
##sta
##tables
##tis
##tiser
##trer
##ug
##uilles
##urage
##via
##visme
##vrieres
##ward
##yau
##yes
##yse
##zi
350
48
abed
abstrait
adorais
affirmer
aires
allies
appelez
apprises
approprie
araignees
associer
athletes
atterrissage
avouer
bloque
bronx
catastrophes
choisissons
codes
comparable
consacre
consacrer
consideree
courses
dangers
detecteurs
disposons
distribuer
donnera
epaisseur
epargner
faisable
grecs
henry
hierarchie
honnetete
immobile
infos
introduction
jersey
kong
lancee
levier
lis
lisez
listes
madame
meduse
moralite
musulman
norden
nus
ordures
osseuse
partez
prendrait
probabilites
propager
psychologue
publicites
puzzle
radiation
rationnel
rechauffe
reconnaissant
regne
regulation
religieuse
remarquablement
repandue
ressentez
reveiller
russe
sandwich
speciales
statue
taxe
terrifiant
transferer
triangle
tropicales
varie
ver
vulnerable
zelande
##45
##75
##84
##91
##ailles
##alem
##arme
##bule
##buste
##cains
##ceptible
##cha
##chir
##copie
##cription
##ctant
##ctuel
##daient
##dient
##ech
##enne
##entement
##erra
##ets
##ference
##gante
##gatives
##gital
##grais
##grammes
##iait
##ids
##ige
##iges
##imentation
##irait
##itre
##joutons
##ket
##laires
##lanta
##lative
##lera
##llite
##luer
##mbe
##mener
##mineux
##mmaire
##neau
##ness
##nom
##ntaux
##orge
##ous
##oyal
##pacite
##pherique
##pia
##pine
##pli
##plier
##ppons
##pre
##ptant
##rase
##rec
##rises
##roductif
##rottoir
##royaient
##ruction
##sin
##sistant
##ssus
##tention
##the
##tisfait
##tot
##uctrice
##uelles
##ulations
##uni
##up
##utons
##visation
##wai
##yper
##ys
72
96
ajoutant
ajuster
alaska
alerte
aristote
arn
astuce
atome
attributs
basique
carton
ceremonie
chauffeur
combustibles
composee
conclusions
connaissions
continuera
controverse
convention
cyrus
cœurs
dedie
deplacant
depose
diplomatie
distribue
dixieme
douleurs
ecoule
ecrivains
elevage
emma
empreintes
enthousiaste
enthousiastes
espoirs
essayaient
exceptionnel
exces
excitante
expliquent
faculte
fatigue
fermier
fievre
gratte
honnetes
ideologie
impacts
implanter
indus
infiniment
institute
interventions
intime
ironie
jack
jouez
kennedy
lente
magicien
maitres
marchandises
masses
meurtre
minorite
modeste
monterey
mycelium
nike
obligations
originale
orteils
passagers
pecheurs
pharmaceutique
pots
poudre
pratiquer
preoccuper
primates
profession
propagande
protegees
rassemblent
recommande
regenerer
representants
resonance
respire
restaurer
revenue
rond
sentons
socialement
souvient
sperme
surprenante
taxi
theorique
trait
verra
violences
vital
west
yemen
zeros
##!
###
##$
##%
##&
##(
##)
##*
##+
##,
##-
##.
##/
##:
##;
##=
##?
##@
##^
##_
##`
##~
##£
##¥
##©
##«
##®
##°
##»
##æ
##ø
##œ
##α
##ε
##η
##ι
##κ
##λ
##μ
##ν
##ρ
##σ
##τ
##υ
##χ
##ω
##ย
##ร
##อ
##–
##—
##‘
##’
##“
##”
##⁄
##€
##∇
##≈
##♪
##♫
##�
